#include <cstdint>
#include "esp_attr.h"

#include "models.h"
// The constant will be stored in flash by default

alignas(8) const unsigned char model_afib_vfib_25_tflite[] = {
0x1c, 0x00, 0x00, 0x00, 0x54, 0x46, 0x4c, 0x33, 0x14, 0x00, 0x20, 0x00, 
0x1c, 0x00, 0x18, 0x00, 0x14, 0x00, 0x10, 0x00, 0x0c, 0x00, 0x00, 0x00, 
0x08, 0x00, 0x04, 0x00, 0x14, 0x00, 0x00, 0x00, 0x1c, 0x00, 0x00, 0x00, 
0x88, 0x00, 0x00, 0x00, 0xe0, 0x00, 0x00, 0x00, 0x08, 0xf6, 0x04, 0x00, 
0x18, 0xf6, 0x04, 0x00, 0xe0, 0x14, 0x05, 0x00, 0x03, 0x00, 0x00, 0x00, 
0x01, 0x00, 0x00, 0x00, 0x04, 0x00, 0x00, 0x00, 0x5a, 0x05, 0xfb, 0xff, 
0x0c, 0x00, 0x00, 0x00, 0x1c, 0x00, 0x00, 0x00, 0x3c, 0x00, 0x00, 0x00, 
0x0f, 0x00, 0x00, 0x00, 0x73, 0x65, 0x72, 0x76, 0x69, 0x6e, 0x67, 0x5f, 
0x64, 0x65, 0x66, 0x61, 0x75, 0x6c, 0x74, 0x00, 0x01, 0x00, 0x00, 0x00, 
0x04, 0x00, 0x00, 0x00, 0x94, 0xff, 0xff, 0xff, 0x30, 0x00, 0x00, 0x00, 
0x04, 0x00, 0x00, 0x00, 0x08, 0x00, 0x00, 0x00, 0x6f, 0x75, 0x74, 0x70, 
0x75, 0x74, 0x5f, 0x30, 0x00, 0x00, 0x00, 0x00, 0x01, 0x00, 0x00, 0x00, 
0x04, 0x00, 0x00, 0x00, 0x8e, 0x09, 0xfb, 0xff, 0x04, 0x00, 0x00, 0x00, 
0x0b, 0x00, 0x00, 0x00, 0x69, 0x6e, 0x70, 0x75, 0x74, 0x5f, 0x6c, 0x61, 
0x79, 0x65, 0x72, 0x00, 0x02, 0x00, 0x00, 0x00, 0x34, 0x00, 0x00, 0x00, 
0x04, 0x00, 0x00, 0x00, 0xdc, 0xff, 0xff, 0xff, 0x33, 0x00, 0x00, 0x00, 
0x04, 0x00, 0x00, 0x00, 0x13, 0x00, 0x00, 0x00, 0x43, 0x4f, 0x4e, 0x56, 
0x45, 0x52, 0x53, 0x49, 0x4f, 0x4e, 0x5f, 0x4d, 0x45, 0x54, 0x41, 0x44, 
0x41, 0x54, 0x41, 0x00, 0x08, 0x00, 0x0c, 0x00, 0x08, 0x00, 0x04, 0x00, 
0x08, 0x00, 0x00, 0x00, 0x32, 0x00, 0x00, 0x00, 0x04, 0x00, 0x00, 0x00, 
0x13, 0x00, 0x00, 0x00, 0x6d, 0x69, 0x6e, 0x5f, 0x72, 0x75, 0x6e, 0x74, 
0x69, 0x6d, 0x65, 0x5f, 0x76, 0x65, 0x72, 0x73, 0x69, 0x6f, 0x6e, 0x00, 
0x34, 0x00, 0x00, 0x00, 0x24, 0xf5, 0x04, 0x00, 0x1c, 0xf5, 0x04, 0x00, 
0x0c, 0xf3, 0x04, 0x00, 0xfc, 0xf1, 0x04, 0x00, 0x6c, 0xf1, 0x04, 0x00, 
0x50, 0xf1, 0x04, 0x00, 0x34, 0xf1, 0x04, 0x00, 0x18, 0xf1, 0x04, 0x00, 
0xfc, 0xf0, 0x04, 0x00, 0xe0, 0xf0, 0x04, 0x00, 0xd0, 0x70, 0x01, 0x00, 
0xc0, 0x90, 0x00, 0x00, 0x30, 0x8d, 0x00, 0x00, 0x20, 0x8a, 0x00, 0x00, 
0x10, 0x0a, 0x00, 0x00, 0x00, 0x08, 0x00, 0x00, 0xf0, 0x05, 0x00, 0x00, 
0x60, 0x05, 0x00, 0x00, 0xd0, 0x04, 0x00, 0x00, 0xc0, 0x03, 0x00, 0x00, 
0xb0, 0x02, 0x00, 0x00, 0xa0, 0x01, 0x00, 0x00, 0x84, 0x01, 0x00, 0x00, 
0x70, 0x01, 0x00, 0x00, 0x5c, 0x01, 0x00, 0x00, 0x54, 0x01, 0x00, 0x00, 
0x4c, 0x01, 0x00, 0x00, 0x44, 0x01, 0x00, 0x00, 0x3c, 0x01, 0x00, 0x00, 
0x34, 0x01, 0x00, 0x00, 0x2c, 0x01, 0x00, 0x00, 0x24, 0x01, 0x00, 0x00, 
0x1c, 0x01, 0x00, 0x00, 0x14, 0x01, 0x00, 0x00, 0x0c, 0x01, 0x00, 0x00, 
0x04, 0x01, 0x00, 0x00, 0xfc, 0x00, 0x00, 0x00, 0xf4, 0x00, 0x00, 0x00, 
0xec, 0x00, 0x00, 0x00, 0xe4, 0x00, 0x00, 0x00, 0xdc, 0x00, 0x00, 0x00, 
0xd4, 0x00, 0x00, 0x00, 0xcc, 0x00, 0x00, 0x00, 0xc4, 0x00, 0x00, 0x00, 
0xbc, 0x00, 0x00, 0x00, 0xb4, 0x00, 0x00, 0x00, 0xac, 0x00, 0x00, 0x00, 
0xa4, 0x00, 0x00, 0x00, 0x9c, 0x00, 0x00, 0x00, 0x94, 0x00, 0x00, 0x00, 
0x74, 0x00, 0x00, 0x00, 0x04, 0x00, 0x00, 0x00, 0xd6, 0x0a, 0xfb, 0xff, 
0x04, 0x00, 0x00, 0x00, 0x60, 0x00, 0x00, 0x00, 0x10, 0x00, 0x00, 0x00, 
0x00, 0x00, 0x00, 0x00, 0x08, 0x00, 0x0e, 0x00, 0x08, 0x00, 0x04, 0x00, 
0x08, 0x00, 0x00, 0x00, 0x10, 0x00, 0x00, 0x00, 0x24, 0x00, 0x00, 0x00, 
0x00, 0x00, 0x06, 0x00, 0x08, 0x00, 0x04, 0x00, 0x06, 0x00, 0x00, 0x00, 
0x04, 0x00, 0x00, 0x00, 0x00, 0x00, 0x00, 0x00, 0x0c, 0x00, 0x18, 0x00, 
0x14, 0x00, 0x10, 0x00, 0x0c, 0x00, 0x04, 0x00, 0x0c, 0x00, 0x00, 0x00, 
0xce, 0x78, 0x7c, 0x04, 0x95, 0xe9, 0xf5, 0x49, 0x02, 0x00, 0x00, 0x00, 
0x02, 0x00, 0x00, 0x00, 0x04, 0x00, 0x00, 0x00, 0x06, 0x00, 0x00, 0x00, 
0x32, 0x2e, 0x31, 0x39, 0x2e, 0x30, 0x00, 0x00, 0x42, 0x0b, 0xfb, 0xff, 
0x04, 0x00, 0x00, 0x00, 0x10, 0x00, 0x00, 0x00, 0x31, 0x2e, 0x31, 0x30, 
0x2e, 0x30, 0x00, 0x00, 0x00, 0x00, 0x00, 0x00, 0x00, 0x00, 0x00, 0x00, 
0xec, 0xec, 0xfa, 0xff, 0xf0, 0xec, 0xfa, 0xff, 0xf4, 0xec, 0xfa, 0xff, 
0xf8, 0xec, 0xfa, 0xff, 0xfc, 0xec, 0xfa, 0xff, 0x00, 0xed, 0xfa, 0xff, 
0x04, 0xed, 0xfa, 0xff, 0x08, 0xed, 0xfa, 0xff, 0x0c, 0xed, 0xfa, 0xff, 
0x10, 0xed, 0xfa, 0xff, 0x14, 0xed, 0xfa, 0xff, 0x18, 0xed, 0xfa, 0xff, 
0x1c, 0xed, 0xfa, 0xff, 0x20, 0xed, 0xfa, 0xff, 0x24, 0xed, 0xfa, 0xff, 
0x28, 0xed, 0xfa, 0xff, 0x2c, 0xed, 0xfa, 0xff, 0x30, 0xed, 0xfa, 0xff, 
0x34, 0xed, 0xfa, 0xff, 0x38, 0xed, 0xfa, 0xff, 0x3c, 0xed, 0xfa, 0xff, 
0x40, 0xed, 0xfa, 0xff, 0x44, 0xed, 0xfa, 0xff, 0x48, 0xed, 0xfa, 0xff, 
0x4c, 0xed, 0xfa, 0xff, 0xc2, 0x0b, 0xfb, 0xff, 0x04, 0x00, 0x00, 0x00, 
0x04, 0x00, 0x00, 0x00, 0xfd, 0xff, 0xff, 0xff, 0xd2, 0x0b, 0xfb, 0xff, 
0x04, 0x00, 0x00, 0x00, 0x04, 0x00, 0x00, 0x00, 0x01, 0x00, 0x00, 0x00, 
0xe2, 0x0b, 0xfb, 0xff, 0x04, 0x00, 0x00, 0x00, 0x0c, 0x00, 0x00, 0x00, 
0x03, 0x33, 0xee, 0xbe, 0x03, 0xe9, 0xdf, 0xbe, 0x20, 0xb5, 0x20, 0x3f, 
0xfa, 0x0b, 0xfb, 0xff, 0x04, 0x00, 0x00, 0x00, 0x00, 0x01, 0x00, 0x00, 
0x0d, 0x37, 0x9f, 0xbe, 0xdd, 0x69, 0xdb, 0xbe, 0xf0, 0xb4, 0x06, 0xbf, 
0x2e, 0x08, 0xbf, 0xbe, 0xd9, 0x75, 0xbf, 0xbe, 0x9c, 0xe8, 0xf5, 0xbe, 
0xe4, 0x35, 0x08, 0xbf, 0x3d, 0x63, 0xaa, 0xbe, 0x42, 0x91, 0xf8, 0x3e, 
0xbc, 0x92, 0x7b, 0xbf, 0xf6, 0xba, 0x02, 0xbf, 0x32, 0x43, 0x6f, 0xbe, 
0xa5, 0x7d, 0xd7, 0xbe, 0x01, 0x78, 0x4f, 0xbf, 0x8f, 0xe1, 0xb1, 0xbe, 
0xc9, 0x87, 0x9f, 0xbe, 0x87, 0xf5, 0xe6, 0xbd, 0x30, 0xec, 0xf9, 0xbe, 
0xdf, 0x8e, 0xb6, 0x3e, 0x76, 0x98, 0x99, 0x3e, 0x72, 0x53, 0xad, 0xbe, 
0x72, 0x8b, 0x42, 0xbf, 0x92, 0x5a, 0xe3, 0xbe, 0xfc, 0x9b, 0x8e, 0x3e, 
0x14, 0xce, 0xa7, 0xbe, 0x68, 0xb8, 0xa6, 0xbe, 0x24, 0xd9, 0xf2, 0xbe, 
0x9e, 0x7f, 0x5c, 0xbe, 0x9a, 0xf0, 0xfe, 0xbe, 0xa8, 0x04, 0xaa, 0xbe, 
0xb2, 0xb0, 0x26, 0x3e, 0x17, 0x8f, 0xf1, 0x3d, 0x6a, 0x7c, 0x0e, 0xbe, 
0xe6, 0xfd, 0xa3, 0x3d, 0x78, 0x1e, 0x9f, 0xbd, 0x88, 0xe9, 0x45, 0xbe, 
0x16, 0xe7, 0x43, 0xbe, 0x71, 0x00, 0xde, 0xbe, 0x7e, 0x97, 0xab, 0xbe, 
0xd4, 0x6b, 0x3b, 0xbf, 0x17, 0xca, 0x58, 0xbf, 0xa0, 0x15, 0x35, 0x3d, 
0x37, 0x70, 0xcd, 0xbd, 0xc9, 0xf2, 0x3a, 0x3d, 0x98, 0xce, 0x1b, 0xbf, 
0x81, 0x3c, 0x0f, 0xbf, 0xa5, 0x0b, 0x63, 0xbe, 0x2c, 0x37, 0x9f, 0xbe, 
0x75, 0x54, 0x08, 0xbf, 0xa4, 0xcf, 0x19, 0xbf, 0x8e, 0x98, 0x9e, 0x3c, 
0x18, 0xd9, 0x0a, 0xbe, 0x52, 0x2d, 0x85, 0xbe, 0x59, 0x20, 0x1e, 0xbe, 
0x7c, 0x9e, 0xa3, 0xbe, 0xf5, 0xee, 0xea, 0x3e, 0x83, 0xfe, 0x45, 0xbe, 
0x3d, 0xdf, 0x05, 0xbf, 0x2d, 0x0e, 0xdc, 0xbd, 0x11, 0xae, 0xd4, 0xbe, 
0xfe, 0xc2, 0x8e, 0xbe, 0x60, 0x02, 0x55, 0xbe, 0x79, 0x6d, 0x80, 0xbe, 
0x74, 0x75, 0x7f, 0xbe, 0x06, 0x0d, 0xfb, 0xff, 0x04, 0x00, 0x00, 0x00, 
0x00, 0x01, 0x00, 0x00, 0x8a, 0x22, 0xcb, 0x3e, 0xa9, 0x0d, 0x1c, 0x3f, 
0x3c, 0xdd, 0xec, 0x3d, 0xe8, 0x3a, 0xa5, 0x3d, 0xd5, 0xb9, 0x32, 0x40, 
0x14, 0xd9, 0xb2, 0x3e, 0x4b, 0xeb, 0x4a, 0x3f, 0x01, 0x42, 0x05, 0x3e, 
0x4c, 0x93, 0xd7, 0x3f, 0x1f, 0x4f, 0x52, 0x3e, 0xb1, 0x85, 0x1a, 0x3e, 
0xbf, 0x07, 0xc0, 0x3e, 0x57, 0xe1, 0xf6, 0x3e, 0x8e, 0xc6, 0xdb, 0x3d, 
0xc5, 0xe4, 0xd1, 0x3f, 0xf3, 0x52, 0x8a, 0x3e, 0x62, 0x95, 0xcc, 0x3f, 
0x29, 0xb7, 0x0b, 0x3e, 0x09, 0x46, 0x1f, 0x3e, 0xf0, 0x18, 0x1f, 0x3f, 
0x4c, 0xad, 0x34, 0x3e, 0x86, 0xb1, 0x75, 0x3e, 0x77, 0xc6, 0x3c, 0x3f, 
0x30, 0x23, 0x29, 0x3f, 0xc1, 0xc3, 0xc4, 0x3e, 0xd3, 0xd7, 0x92, 0x3d, 
0x56, 0x19, 0x34, 0x3f, 0xdf, 0x6a, 0x83, 0x3e, 0x92, 0x33, 0x94, 0x3e, 
0x0e, 0xc8, 0x0b, 0x3e, 0x58, 0xa8, 0xc1, 0x3f, 0xc8, 0xb3, 0x6e, 0x3e, 
0x7e, 0x5a, 0xa9, 0x3f, 0x2b, 0x96, 0x28, 0x3e, 0xfe, 0x9d, 0x2b, 0x3e, 
0x35, 0xc4, 0xcd, 0x3e, 0x5c, 0x05, 0x5d, 0x3e, 0xd1, 0x1c, 0x35, 0x3e, 
0x94, 0xe5, 0xe5, 0x3d, 0x62, 0x27, 0x52, 0x3f, 0xfb, 0x83, 0xc8, 0x3e, 
0xb9, 0x8e, 0x6e, 0x3e, 0x48, 0xcb, 0x9a, 0x3e, 0x0b, 0x7a, 0x59, 0x3d, 
0x9b, 0x8d, 0x96, 0x3d, 0x00, 0x60, 0x6a, 0x3d, 0x16, 0x02, 0x33, 0x3f, 
0x9b, 0xdd, 0x96, 0x3e, 0x28, 0x8c, 0x26, 0x3f, 0x12, 0xe7, 0x70, 0x3d, 
0xba, 0x52, 0xae, 0x3e, 0xd7, 0x50, 0x6b, 0x3d, 0xb7, 0xe0, 0xbe, 0x3f, 
0xa4, 0x5e, 0x37, 0x3e, 0x31, 0x21, 0xbb, 0x3d, 0x56, 0xd7, 0x62, 0x3e, 
0x5d, 0x98, 0x12, 0x3f, 0xed, 0x01, 0x33, 0x3e, 0x94, 0xdc, 0x98, 0x3e, 
0xfe, 0x5b, 0xb8, 0x3d, 0x0e, 0xa1, 0xce, 0x3e, 0x8b, 0x75, 0xc9, 0x3e, 
0xf8, 0xcc, 0x9c, 0x3f, 0xf6, 0x43, 0x25, 0x3e, 0x12, 0x0e, 0xfb, 0xff, 
0x04, 0x00, 0x00, 0x00, 0x00, 0x01, 0x00, 0x00, 0xbe, 0xa0, 0xea, 0xbe, 
0x0e, 0xd9, 0x36, 0x3e, 0xfa, 0x6b, 0xb8, 0xbe, 0x24, 0x31, 0xa6, 0xbd, 
0xb3, 0x5d, 0xee, 0xbe, 0x20, 0xd4, 0xb5, 0xbe, 0x4d, 0x07, 0x13, 0xbe, 
0xea, 0x90, 0x84, 0xbe, 0xc2, 0xe4, 0xb2, 0xbe, 0x5a, 0xfd, 0x42, 0xbe, 
0x0a, 0xf0, 0x8c, 0xbe, 0x65, 0x6a, 0xd5, 0x3e, 0x68, 0xb6, 0x8b, 0xbd, 
0x36, 0x89, 0x18, 0x3e, 0xf8, 0xd6, 0xe4, 0xbe, 0xd8, 0xa3, 0x37, 0x3d, 
0xc8, 0x83, 0xdc, 0xbd, 0x14, 0x87, 0x03, 0xbe, 0xb7, 0x63, 0xdf, 0x3e, 
0x33, 0x73, 0xd9, 0xbe, 0x2c, 0x6c, 0x1e, 0x3e, 0x9a, 0x1b, 0x73, 0xbe, 
0xe0, 0x44, 0x43, 0xbd, 0xc8, 0x04, 0x57, 0xbe, 0xa8, 0x1d, 0x62, 0xbc, 
0xcc, 0x27, 0xbe, 0x3d, 0xf5, 0x58, 0x0b, 0xbf, 0x12, 0x77, 0x44, 0x3e, 
0x00, 0x73, 0x35, 0x3d, 0xe2, 0xc6, 0xf2, 0x3d, 0x08, 0x14, 0x3b, 0x3e, 
0xb5, 0xa3, 0x57, 0x3e, 0xcc, 0xf3, 0x96, 0xbe, 0x78, 0x0e, 0xe7, 0xbd, 
0x8e, 0x47, 0x4a, 0x3f, 0x7e, 0xfa, 0x19, 0x3e, 0xa8, 0xce, 0x49, 0x3e, 
0x87, 0xd3, 0xc0, 0x3e, 0x00, 0x52, 0xa2, 0xbc, 0x38, 0x95, 0x1d, 0x3d, 
0xfe, 0x75, 0x55, 0xbe, 0x68, 0xc7, 0xad, 0xbd, 0xb8, 0x24, 0x42, 0x3d, 
0xa8, 0x63, 0x82, 0xbd, 0xf8, 0xc2, 0x25, 0x3e, 0x71, 0xf6, 0xf3, 0x3e, 
0x46, 0xb8, 0xf0, 0xbe, 0x80, 0x89, 0x2f, 0x3d, 0x11, 0x66, 0x1f, 0xbe, 
0x14, 0x5f, 0x70, 0x3e, 0xbb, 0x6d, 0x5e, 0xbf, 0xe4, 0xc4, 0x6c, 0x3d, 
0x70, 0x26, 0x2e, 0xbd, 0x4b, 0x10, 0x56, 0x3e, 0xb6, 0x7a, 0xe7, 0x3e, 
0x64, 0x81, 0x06, 0x3e, 0xe1, 0xc2, 0x0d, 0xbf, 0xa4, 0xd9, 0x79, 0xbe, 
0x53, 0x10, 0xc6, 0xbe, 0x88, 0x69, 0xa9, 0x3d, 0x70, 0x8a, 0x10, 0xbf, 
0x4e, 0x32, 0x7c, 0xbe, 0x3e, 0x5f, 0x09, 0x3e, 0x1a, 0xda, 0x9c, 0x3e, 
0x1e, 0x0f, 0xfb, 0xff, 0x04, 0x00, 0x00, 0x00, 0x80, 0x00, 0x00, 0x00, 
0x91, 0x14, 0x2d, 0x3f, 0x38, 0x6f, 0x0c, 0x40, 0x81, 0xcf, 0x0f, 0x3f, 
0xa4, 0x8a, 0x38, 0x3f, 0x2f, 0xb1, 0x25, 0x40, 0x6c, 0x97, 0x35, 0x40, 
0xcd, 0xb4, 0x23, 0x40, 0x4b, 0x62, 0xb2, 0x3f, 0x9a, 0xd2, 0xbd, 0x40, 
0xe8, 0xe4, 0x85, 0x40, 0xdc, 0x51, 0x53, 0x3f, 0x64, 0x37, 0x7a, 0x3f, 
0xfd, 0x10, 0x8e, 0x3f, 0x79, 0x2b, 0x1c, 0x40, 0x43, 0x6e, 0xd0, 0x40, 
0xbc, 0x38, 0x36, 0x3f, 0xeb, 0xb0, 0xbf, 0x3f, 0x16, 0x8e, 0x5a, 0x3f, 
0xc0, 0xaa, 0x9a, 0x3f, 0xd9, 0x9e, 0xbd, 0x3e, 0x66, 0x9b, 0x79, 0x40, 
0x94, 0xbf, 0xd8, 0x3f, 0x02, 0x71, 0x02, 0x40, 0xff, 0x78, 0x23, 0x40, 
0xd3, 0xe7, 0x3a, 0x41, 0x0b, 0xf7, 0x1c, 0x3f, 0x44, 0xea, 0xed, 0x3e, 
0xc0, 0x93, 0x9a, 0x3f, 0x81, 0x28, 0xd2, 0x3f, 0x78, 0xa8, 0x0f, 0x40, 
0x34, 0xaa, 0x32, 0x40, 0x52, 0xb3, 0xc8, 0x3f, 0xaa, 0x0f, 0xfb, 0xff, 
0x04, 0x00, 0x00, 0x00, 0x80, 0x00, 0x00, 0x00, 0x56, 0x2a, 0xae, 0xbd, 
0x60, 0xff, 0xcb, 0x3c, 0x7c, 0x51, 0x08, 0xbe, 0xa4, 0xe3, 0x14, 0x3d, 
0x26, 0xf0, 0x20, 0xbe, 0xd4, 0x34, 0xef, 0xbe, 0x68, 0x3d, 0x41, 0xbe, 
0x9d, 0x7f, 0x0b, 0xbe, 0xc6, 0x31, 0x07, 0xc0, 0x94, 0x1b, 0xc9, 0xbf, 
0x78, 0xa6, 0x70, 0xbd, 0x30, 0x9d, 0x39, 0xbd, 0xd6, 0xc3, 0xea, 0xbd, 
0xd0, 0x60, 0x54, 0xbf, 0xb8, 0x20, 0xa6, 0x3d, 0x38, 0x13, 0x05, 0xbe, 
0xc6, 0xc9, 0x8e, 0x3d, 0xdb, 0x10, 0x92, 0xbd, 0xf0, 0x2c, 0xd7, 0xbd, 
0x39, 0x97, 0x28, 0xbe, 0x5e, 0xd3, 0x8e, 0x3d, 0xa9, 0x65, 0xad, 0xbe, 
0x86, 0xae, 0x9d, 0xbe, 0xab, 0x3a, 0x91, 0xbe, 0x0c, 0x45, 0x6a, 0x3d, 
0x10, 0x08, 0xac, 0xbc, 0x0c, 0xf1, 0xab, 0xbe, 0x2c, 0x1a, 0x97, 0x3d, 
0x94, 0xe7, 0xe9, 0xbd, 0xec, 0x93, 0x67, 0xbe, 0x29, 0x9e, 0xff, 0xbe, 
0x2c, 0xfa, 0xc8, 0xbd, 0x36, 0x10, 0xfb, 0xff, 0x04, 0x00, 0x00, 0x00, 
0x00, 0x02, 0x00, 0x00, 0x6d, 0x03, 0x03, 0x3e, 0x1e, 0xb8, 0x34, 0x3e, 
0x46, 0xfa, 0x74, 0x3e, 0x78, 0xa0, 0x41, 0x3f, 0x26, 0x81, 0x88, 0x3f, 
0x71, 0x5c, 0x27, 0x40, 0xd2, 0xa6, 0x32, 0x42, 0x46, 0x64, 0x4b, 0x40, 
0xb2, 0x97, 0x54, 0x3e, 0x0b, 0x54, 0xcd, 0x3e, 0x9a, 0xf2, 0x9d, 0x3e, 
0x17, 0x2c, 0x0f, 0x3f, 0x01, 0xf6, 0x80, 0x3d, 0x6e, 0xee, 0x96, 0x40, 
0x92, 0x03, 0x04, 0x40, 0x73, 0x8c, 0x1c, 0x3f, 0x2a, 0xbc, 0x8d, 0x3e, 
0x6b, 0xec, 0x92, 0x3d, 0xb3, 0x4a, 0xee, 0x3e, 0x93, 0x90, 0x56, 0x3f, 
0x5f, 0xd8, 0x13, 0x40, 0xca, 0x55, 0x3d, 0x3f, 0xdf, 0x2a, 0xdd, 0x3f, 
0x17, 0x7a, 0x07, 0x3e, 0x74, 0xbe, 0x0e, 0x3f, 0x70, 0xb8, 0x2d, 0x3f, 
0x46, 0xb1, 0x15, 0x3e, 0x0b, 0x47, 0xb9, 0x3e, 0x1f, 0x83, 0x5a, 0x3f, 
0x4c, 0x7f, 0x11, 0x3f, 0x30, 0x89, 0xe0, 0x3e, 0xa7, 0x38, 0x11, 0x3f, 
0xbd, 0xce, 0xe3, 0x3f, 0x9a, 0x25, 0x5b, 0x40, 0xcc, 0xa1, 0x0e, 0x3f, 
0xd6, 0x81, 0x91, 0x3e, 0xe9, 0x08, 0xb3, 0x3d, 0xf4, 0xba, 0xc8, 0x3e, 
0x17, 0x44, 0xe5, 0x3f, 0xaf, 0xeb, 0x19, 0x3e, 0xd1, 0x26, 0x97, 0x3f, 
0xc4, 0x6d, 0xda, 0x3f, 0x0b, 0x0a, 0x48, 0x3d, 0x07, 0x66, 0x2d, 0x40, 
0xd9, 0xc1, 0x61, 0x3e, 0x92, 0xe4, 0xae, 0x40, 0x59, 0xf2, 0x5e, 0x3e, 
0x44, 0x72, 0x29, 0x40, 0xaf, 0xd4, 0xca, 0x3e, 0x4d, 0xe5, 0xf1, 0x3e, 
0x83, 0x94, 0xf8, 0x3f, 0x0b, 0x4b, 0x07, 0x3f, 0x1f, 0x11, 0x64, 0x3f, 
0xf7, 0x09, 0x6d, 0x3f, 0x04, 0x01, 0x43, 0x40, 0x69, 0x71, 0xee, 0x3e, 
0xa3, 0xce, 0x8e, 0x3e, 0x55, 0x63, 0x0f, 0x3e, 0x49, 0x96, 0x6e, 0x40, 
0x19, 0x1f, 0x5c, 0x3e, 0xbc, 0x51, 0x27, 0x3f, 0x34, 0xbf, 0xe2, 0x3d, 
0xc6, 0x25, 0x62, 0x40, 0x36, 0x22, 0x98, 0x3f, 0x55, 0x2d, 0xb8, 0x3d, 
0xd3, 0x2c, 0x9f, 0x40, 0xa9, 0xc6, 0x8e, 0x3f, 0x71, 0x4f, 0x65, 0x3f, 
0xe2, 0x46, 0xad, 0x40, 0xf8, 0x85, 0xbc, 0x3d, 0x5b, 0xf9, 0x52, 0x3f, 
0x0a, 0x89, 0x11, 0x3f, 0xc9, 0x77, 0x31, 0x3d, 0x77, 0x88, 0x7c, 0x3e, 
0xb6, 0x30, 0x91, 0x3e, 0x53, 0x34, 0x9d, 0x3e, 0xb7, 0xbc, 0x85, 0x3e, 
0x4b, 0xbe, 0x31, 0x3d, 0x37, 0xd8, 0x36, 0x3e, 0xe8, 0x64, 0xcc, 0x3f, 
0x4f, 0x9f, 0xc8, 0x3e, 0x41, 0xb4, 0x84, 0x3d, 0xdf, 0x0d, 0xf9, 0x41, 
0x3f, 0x39, 0x79, 0x3f, 0x1b, 0x9a, 0x8c, 0x40, 0xe4, 0x8e, 0x5b, 0x3d, 
0x15, 0x83, 0x5f, 0x3f, 0x83, 0x9e, 0xad, 0x3f, 0xc3, 0x97, 0x08, 0x40, 
0x31, 0xb1, 0x09, 0x40, 0x93, 0xe9, 0x4d, 0x3e, 0x7b, 0x54, 0x1b, 0x3f, 
0x73, 0x33, 0x16, 0x40, 0x4d, 0x48, 0x29, 0x3e, 0xee, 0x5c, 0x11, 0x40, 
0xa5, 0x97, 0xf2, 0x3d, 0x92, 0x9c, 0x1a, 0x42, 0xa2, 0x04, 0xe2, 0x3d, 
0x84, 0x62, 0x98, 0x3f, 0xc9, 0x1e, 0x93, 0x3d, 0xec, 0x27, 0x1e, 0x3e, 
0x50, 0xc9, 0x38, 0x3f, 0xa9, 0xf3, 0x3d, 0x3e, 0x5e, 0x8a, 0x04, 0x40, 
0x00, 0xd2, 0x0c, 0x40, 0xde, 0x22, 0x20, 0x3e, 0x3d, 0x61, 0x2d, 0x3e, 
0xb0, 0x90, 0xbc, 0x3d, 0x74, 0x7c, 0x42, 0x3f, 0xac, 0xf8, 0x95, 0x3e, 
0xc8, 0x0a, 0x6b, 0x40, 0xcc, 0x4e, 0xd0, 0x3e, 0x15, 0xb9, 0x8d, 0x3f, 
0xc0, 0xb7, 0x0a, 0x40, 0xae, 0x42, 0x40, 0x40, 0x8e, 0x5e, 0x31, 0x40, 
0x88, 0x64, 0xf2, 0x3e, 0x7a, 0x2a, 0xcf, 0x3e, 0x15, 0x2a, 0xa1, 0x3f, 
0xcf, 0x1e, 0x13, 0x40, 0xfc, 0x7f, 0x84, 0x3e, 0x09, 0x3c, 0xac, 0x3e, 
0x69, 0xf5, 0x98, 0x3d, 0xd4, 0x6c, 0x1f, 0x3e, 0x84, 0x5d, 0xb3, 0x3f, 
0xf1, 0x84, 0xbd, 0x3f, 0x52, 0x3d, 0x34, 0x3e, 0x03, 0xe0, 0x0f, 0x3e, 
0x42, 0x12, 0xfb, 0xff, 0x04, 0x00, 0x00, 0x00, 0x00, 0x02, 0x00, 0x00, 
0x30, 0x1c, 0xab, 0xbe, 0x68, 0x08, 0xf5, 0xbd, 0x3e, 0xfe, 0x75, 0xbe, 
0x93, 0x9f, 0xfe, 0xbe, 0xd1, 0x17, 0x8c, 0xbe, 0x20, 0x1e, 0x35, 0xbd, 
0x50, 0xec, 0x28, 0xbd, 0x88, 0xdb, 0x2c, 0xbe, 0xc0, 0x38, 0x63, 0xbe, 
0xc0, 0xe3, 0xc0, 0xbe, 0x79, 0xde, 0x6b, 0xbe, 0x8a, 0xf4, 0xbd, 0xbe, 
0x2f, 0x6f, 0x4d, 0xbe, 0x1c, 0x07, 0x3d, 0xbe, 0x96, 0xb1, 0x27, 0xbe, 
0x34, 0xcf, 0xf0, 0xbd, 0x27, 0xfd, 0xdf, 0xbe, 0x7a, 0xdd, 0x79, 0xbf, 
0x8c, 0x92, 0xb4, 0xbe, 0x06, 0x10, 0x86, 0xbe, 0x39, 0x1e, 0xe8, 0xbd, 
0xb0, 0xb3, 0xab, 0xbd, 0xc4, 0x40, 0x39, 0xbe, 0x32, 0xfa, 0x0f, 0xbe, 
0x54, 0xb4, 0x97, 0xbe, 0x11, 0x9b, 0xc0, 0xbe, 0x82, 0x10, 0xad, 0xbe, 
0xeb, 0xc6, 0xa3, 0xbe, 0xec, 0xbb, 0x97, 0xbe, 0x84, 0x6e, 0x07, 0xbe, 
0xbd, 0x9b, 0xce, 0xbe, 0xb4, 0x76, 0xe5, 0xbe, 0xc1, 0x61, 0x51, 0xbe, 
0x80, 0xc7, 0x43, 0xbe, 0x32, 0x2a, 0xc3, 0xbe, 0x9e, 0x3d, 0x70, 0xbe, 
0xb3, 0x19, 0xfc, 0xbe, 0xf8, 0x81, 0xd6, 0xbe, 0x63, 0xbc, 0x8a, 0xbe, 
0x3e, 0xb5, 0x0e, 0xbe, 0x3b, 0x28, 0xb8, 0xbd, 0x2f, 0xab, 0x28, 0xbe, 
0x60, 0xb5, 0xa8, 0xbd, 0x68, 0x33, 0x9c, 0xbe, 0x32, 0x8c, 0xce, 0xbd, 
0x9b, 0x37, 0x0e, 0xbd, 0x30, 0x05, 0xbe, 0xbe, 0xdc, 0x5c, 0x6a, 0xbe, 
0x83, 0x54, 0x7f, 0xbe, 0xbd, 0x78, 0x76, 0xbe, 0xb7, 0x79, 0x4a, 0xbe, 
0x40, 0xd5, 0x4c, 0xbe, 0xc6, 0x35, 0x86, 0xbe, 0xc6, 0x76, 0x84, 0xbe, 
0xc2, 0x02, 0x97, 0xbd, 0xaa, 0x5d, 0x0d, 0xbf, 0x8a, 0x55, 0x94, 0xbe, 
0x40, 0xe0, 0x3b, 0xbd, 0x18, 0x80, 0x31, 0xbe, 0x84, 0x8c, 0x61, 0xbf, 
0xb2, 0xa9, 0xb8, 0xbe, 0x33, 0x3f, 0xcd, 0xbe, 0x81, 0xf1, 0x25, 0xbe, 
0xa2, 0x78, 0x5a, 0xbe, 0x3e, 0x53, 0x7d, 0xbe, 0xe1, 0x9d, 0x44, 0xbe, 
0xdc, 0xba, 0x8f, 0xbe, 0x15, 0x8d, 0xe2, 0xbe, 0x19, 0x50, 0xc9, 0xbd, 
0x69, 0x4b, 0x20, 0xbe, 0x46, 0xb8, 0xbc, 0xbe, 0x5c, 0x53, 0xe4, 0xbd, 
0xd8, 0x7d, 0x8c, 0xbe, 0x2b, 0xeb, 0x22, 0xbf, 0x44, 0xa5, 0xc9, 0xbe, 
0x75, 0x04, 0xdc, 0xbe, 0x16, 0x57, 0xd6, 0xbe, 0x19, 0x21, 0x9d, 0xbe, 
0x70, 0xeb, 0xba, 0xbe, 0x93, 0xae, 0x1d, 0xbe, 0xe8, 0x6e, 0x8b, 0xbe, 
0x2c, 0xf4, 0xbe, 0xbe, 0xe8, 0x88, 0x1a, 0xbd, 0xcc, 0xe9, 0x70, 0xbe, 
0x47, 0x70, 0xf4, 0xbd, 0x94, 0x3c, 0x91, 0xbe, 0xa2, 0x96, 0x90, 0xbe, 
0xff, 0xb2, 0x88, 0xbe, 0x48, 0x8f, 0x47, 0xbe, 0x15, 0x20, 0x56, 0xbe, 
0xab, 0x71, 0x2a, 0xbf, 0xe2, 0x7d, 0x47, 0xbe, 0x00, 0x08, 0x58, 0xbe, 
0xe6, 0xf5, 0x65, 0xbe, 0xc8, 0x30, 0x25, 0xbe, 0x29, 0xe9, 0x0f, 0xbf, 
0xbe, 0x99, 0x86, 0xbc, 0x31, 0x89, 0x1c, 0xbe, 0xa2, 0xa8, 0x57, 0xbe, 
0x51, 0x6b, 0x66, 0xbe, 0x2e, 0x66, 0xe5, 0xbd, 0x0f, 0x11, 0xa7, 0xbe, 
0xda, 0x74, 0x8a, 0xbe, 0xc7, 0x8a, 0x62, 0xbe, 0x83, 0x87, 0x0c, 0xbe, 
0x1d, 0x01, 0x05, 0xbf, 0x65, 0x4b, 0x37, 0xbf, 0x3b, 0xad, 0xc4, 0xbe, 
0xf2, 0x44, 0xcb, 0xbe, 0xec, 0xf3, 0x89, 0xbe, 0x1e, 0x34, 0x99, 0xbd, 
0xbd, 0xaf, 0x07, 0xbf, 0x28, 0x72, 0x85, 0xbe, 0x76, 0x88, 0x19, 0xbe, 
0x5f, 0x64, 0xa4, 0xbd, 0xa1, 0x00, 0x2a, 0xbe, 0xfd, 0xb3, 0xd3, 0xbe, 
0xd2, 0x64, 0x91, 0xbe, 0xfc, 0x29, 0xaa, 0xbe, 0xb4, 0x7a, 0x94, 0xbd, 
0x4f, 0x67, 0xdb, 0xbe, 0xe2, 0x0f, 0xce, 0xbe, 0x78, 0x43, 0x04, 0xbf, 
0x70, 0x40, 0x98, 0xbe, 0x14, 0x4c, 0x52, 0xbe, 0x0d, 0x0a, 0x8d, 0xbe, 
0x12, 0x8a, 0x94, 0xbe, 0x8a, 0x65, 0xa9, 0xbe, 0x4e, 0x14, 0xfb, 0xff, 
0x04, 0x00, 0x00, 0x00, 0x00, 0x80, 0x00, 0x00, 0x51, 0x50, 0x8a, 0x3d, 
0x31, 0x18, 0xf3, 0xbd, 0xac, 0xfe, 0x7d, 0xbe, 0x8b, 0xac, 0xd3, 0xbd, 
0x76, 0xf3, 0x12, 0x3f, 0xe4, 0x73, 0xc5, 0xbe, 0xf6, 0xd2, 0x6c, 0x3f, 
0xfe, 0x23, 0x84, 0x3e, 0x72, 0xfd, 0x17, 0x3f, 0xa5, 0xd4, 0xd8, 0x3e, 
0xf4, 0xf8, 0x15, 0xbe, 0x04, 0xb2, 0x6b, 0xbd, 0xa2, 0x11, 0xac, 0xbe, 
0x7b, 0x8d, 0xb6, 0xbf, 0x1b, 0x56, 0xc8, 0xbe, 0x63, 0x8a, 0x3f, 0x3d, 
0x70, 0x31, 0x3e, 0xbd, 0xa2, 0x7f, 0x7a, 0x3e, 0x1d, 0x0d, 0xf8, 0xbe, 
0xef, 0x62, 0xfa, 0x3e, 0x2b, 0x7a, 0xc9, 0x3e, 0x43, 0x8a, 0x5c, 0x3e, 
0xda, 0x4f, 0x8f, 0x3e, 0x75, 0x4c, 0x1c, 0xbe, 0x90, 0x61, 0xfe, 0xbe, 
0xd3, 0x65, 0x5d, 0xbd, 0x38, 0xb0, 0xa4, 0xbe, 0xe1, 0x99, 0x56, 0xbe, 
0x3e, 0x59, 0x0c, 0x3f, 0xf4, 0xab, 0x45, 0xbe, 0x34, 0x27, 0xfe, 0xbd, 
0x6d, 0x14, 0xbb, 0xbe, 0xd8, 0x06, 0x79, 0xbe, 0x2f, 0xbd, 0x33, 0xbf, 
0x4c, 0xfb, 0x06, 0x3e, 0x32, 0x1b, 0xa5, 0xbc, 0xcc, 0x8b, 0x77, 0xbe, 
0xac, 0xc5, 0x6b, 0xbe, 0x66, 0x9d, 0x44, 0x3e, 0xf9, 0x71, 0x36, 0x3e, 
0xf6, 0x01, 0x9d, 0x3e, 0x1b, 0x5b, 0xc4, 0x3e, 0xe8, 0xe3, 0xaf, 0xbe, 
0x99, 0x48, 0x2b, 0xbf, 0x86, 0x3a, 0xb8, 0xbe, 0x21, 0xe8, 0x36, 0x3d, 
0xe0, 0x6c, 0xc1, 0x3d, 0xc7, 0x90, 0xf2, 0x3e, 0x6d, 0xe2, 0xdf, 0x3d, 
0x48, 0x1d, 0x15, 0x3e, 0x75, 0x57, 0x8f, 0x3d, 0x5c, 0xde, 0x7f, 0x3d, 
0x45, 0x0e, 0x69, 0xbd, 0xcd, 0xc1, 0x29, 0xbf, 0x8a, 0xd3, 0x5f, 0x3e, 
0xdf, 0x9b, 0xe0, 0xbd, 0xf1, 0x66, 0xca, 0x3d, 0xff, 0x82, 0x33, 0x3e, 
0x5b, 0x6e, 0x17, 0x3f, 0x12, 0x59, 0x1a, 0xbf, 0x15, 0x78, 0x0c, 0x3f, 
0x0b, 0x4d, 0x1a, 0xbe, 0x29, 0x55, 0x29, 0xbe, 0x4d, 0x02, 0xb8, 0xbd, 
0xfc, 0x01, 0xe0, 0x3d, 0x05, 0x9b, 0x8e, 0xbd, 0xff, 0x63, 0x46, 0x3e, 
0xc2, 0x9c, 0x3d, 0xbe, 0x8d, 0x81, 0xf1, 0x3e, 0x4f, 0xf1, 0x11, 0x3e, 
0x10, 0x8b, 0xe4, 0x3e, 0xf8, 0xe7, 0xa8, 0x3e, 0x28, 0x20, 0xe4, 0xbd, 
0xf9, 0x00, 0x29, 0x3e, 0x92, 0xfa, 0xb2, 0xbe, 0xd7, 0x1e, 0xf0, 0x3d, 
0x8d, 0x1e, 0x1a, 0xbf, 0x54, 0xc6, 0x4c, 0xbd, 0xb8, 0x5e, 0x6c, 0xbe, 
0x28, 0x4f, 0x4b, 0x3f, 0x5e, 0x0b, 0x07, 0xbb, 0x69, 0xfd, 0x62, 0x3d, 
0xa9, 0x08, 0x9b, 0x3d, 0xdc, 0x87, 0x92, 0xbe, 0x03, 0x15, 0xdd, 0x3e, 
0x1a, 0x83, 0x22, 0xbe, 0x09, 0xd8, 0xb4, 0xbd, 0xd2, 0xb3, 0xa6, 0xbe, 
0x1e, 0x0e, 0x0c, 0x3f, 0x59, 0x76, 0x2b, 0xbf, 0x4f, 0xa3, 0xe3, 0x3e, 
0xad, 0x99, 0x9b, 0x3d, 0x0a, 0xa5, 0x0f, 0xbf, 0xca, 0x1b, 0x69, 0x3e, 
0x92, 0xff, 0x3b, 0xbd, 0x3f, 0xc6, 0x56, 0x3e, 0x9a, 0x1e, 0xd6, 0xbe, 
0xf4, 0x21, 0x92, 0x3e, 0x6f, 0x59, 0xf2, 0xbc, 0x32, 0xa0, 0x70, 0xbe, 
0x04, 0x47, 0xa5, 0x3e, 0x31, 0xdb, 0x3f, 0xbf, 0xa2, 0xc6, 0x2b, 0xbf, 
0x5f, 0x7b, 0x92, 0x3e, 0x4e, 0xa8, 0x4b, 0xbf, 0xe5, 0xd3, 0xab, 0x3e, 
0x83, 0xe9, 0xd6, 0x3e, 0x06, 0xc6, 0xeb, 0x3e, 0x80, 0x4d, 0x4c, 0x3d, 
0x82, 0x9a, 0x2a, 0x3d, 0x96, 0xb9, 0x09, 0xbd, 0xf5, 0x47, 0xa3, 0x3d, 
0x1e, 0x10, 0xc0, 0x3e, 0x7e, 0xd9, 0x4c, 0xbf, 0x98, 0x5f, 0xd9, 0x3e, 
0x04, 0x01, 0xfd, 0xbd, 0x29, 0xef, 0x37, 0x3c, 0xc4, 0xda, 0x84, 0xbe, 
0xfd, 0xdd, 0x23, 0x3f, 0x2f, 0x2a, 0x0c, 0x3e, 0x2f, 0xef, 0xf4, 0x3e, 
0x47, 0x07, 0xa4, 0x3d, 0xd1, 0x75, 0x48, 0x3e, 0xf3, 0xf0, 0x1b, 0x3e, 
0x7d, 0xdc, 0x7d, 0xbe, 0x8d, 0xb6, 0x18, 0xbc, 0x8a, 0xa6, 0xed, 0xbc, 
0xcc, 0x72, 0x2c, 0x3e, 0x2d, 0x13, 0x77, 0x3e, 0xff, 0xd3, 0xc1, 0xbd, 
0x35, 0x9a, 0xfd, 0x3d, 0x02, 0x6f, 0xfe, 0x3e, 0xc3, 0x95, 0x5c, 0x3d, 
0xb1, 0x5f, 0x0b, 0xbf, 0xfa, 0x63, 0xf9, 0x3e, 0x40, 0x3b, 0x45, 0x3e, 
0xe2, 0xe9, 0x87, 0x3e, 0x19, 0xf9, 0xec, 0x3e, 0xbf, 0xe2, 0xf7, 0xbe, 
0x1d, 0x40, 0x26, 0xbe, 0xa5, 0xff, 0x01, 0xbf, 0xe9, 0xb8, 0xb7, 0xbd, 
0xa6, 0x14, 0x7d, 0xbe, 0xd4, 0xa4, 0x68, 0xbd, 0xa4, 0xc0, 0x26, 0xbe, 
0x72, 0x33, 0x3a, 0x3e, 0x3c, 0xe8, 0x4f, 0xbf, 0xd3, 0xab, 0x37, 0xbe, 
0x80, 0x98, 0x5a, 0xbc, 0xf7, 0x73, 0xd1, 0x3d, 0x4f, 0x1b, 0x8f, 0x3e, 
0x64, 0x9a, 0x3b, 0xbf, 0x24, 0x4c, 0xc8, 0x3e, 0xdc, 0x4d, 0x1e, 0xbe, 
0x23, 0x0f, 0x26, 0x3d, 0x37, 0x83, 0x37, 0x3e, 0xfd, 0x2c, 0xbc, 0x3e, 
0x0f, 0xa0, 0x51, 0xbd, 0xa7, 0xef, 0x1d, 0xbf, 0xc8, 0xdf, 0x8f, 0xbe, 
0x36, 0xd1, 0xf9, 0x3e, 0x5a, 0x86, 0x84, 0xbe, 0xf9, 0xe5, 0x40, 0x3f, 
0xf5, 0xce, 0x5e, 0xbd, 0x2d, 0xc4, 0x71, 0xbe, 0x05, 0x80, 0x94, 0xbc, 
0x43, 0xfd, 0xbb, 0x3e, 0x2c, 0x9f, 0x3d, 0xbe, 0xc5, 0x32, 0x8d, 0x3d, 
0x84, 0x5f, 0x35, 0xbd, 0x06, 0x4e, 0x6a, 0xbe, 0x2d, 0xb6, 0x40, 0x3d, 
0x41, 0x20, 0x08, 0x3f, 0xa6, 0x33, 0x85, 0xbe, 0x5d, 0x9a, 0x68, 0xbe, 
0x91, 0xb3, 0xc5, 0x3e, 0x30, 0x5b, 0xaf, 0x3d, 0xe5, 0xb9, 0x90, 0x3e, 
0xe5, 0x35, 0xf3, 0x3d, 0x9b, 0x00, 0x02, 0x3f, 0x2a, 0xf5, 0xc1, 0xbd, 
0x39, 0x23, 0x97, 0xbe, 0x01, 0x34, 0xdf, 0x3a, 0x30, 0xc9, 0x8d, 0xbe, 
0xa4, 0xbc, 0x22, 0x3e, 0xef, 0x07, 0x02, 0x3f, 0x0b, 0xa0, 0xd9, 0x3e, 
0xe5, 0xc8, 0x92, 0x3e, 0x4d, 0x0b, 0x7d, 0x3d, 0xe9, 0xb6, 0xad, 0x3e, 
0x34, 0x21, 0xc1, 0x3d, 0x5a, 0x05, 0x20, 0xbe, 0x03, 0x6e, 0x44, 0x3d, 
0x00, 0x4b, 0xdb, 0xbe, 0xc4, 0x96, 0xac, 0xbc, 0xae, 0xa2, 0x80, 0x3e, 
0x5b, 0x18, 0x9d, 0x3d, 0x24, 0x32, 0x82, 0xbc, 0xf0, 0x54, 0xa2, 0x3e, 
0x65, 0x13, 0x92, 0xbd, 0x40, 0xc9, 0x06, 0xbe, 0x6a, 0x9e, 0x06, 0x3f, 
0xcb, 0x4c, 0x83, 0x3d, 0x43, 0x8d, 0x0b, 0xbf, 0x66, 0x2b, 0x37, 0xbb, 
0x3e, 0xd5, 0x3d, 0xbf, 0x0a, 0xba, 0x93, 0xbe, 0x16, 0xed, 0x1b, 0x3f, 
0x52, 0x27, 0x2d, 0x3e, 0x0b, 0x65, 0xf4, 0xbc, 0x18, 0xb9, 0xda, 0xbe, 
0x83, 0xcf, 0x14, 0xbe, 0x55, 0x9b, 0x91, 0x3f, 0xea, 0xfe, 0xcf, 0xbe, 
0xb8, 0x12, 0x17, 0xbe, 0x79, 0xad, 0x3e, 0xbe, 0xdd, 0xc3, 0xc7, 0x3d, 
0x86, 0xf9, 0x8c, 0x3e, 0x6f, 0xe9, 0x31, 0x3f, 0x80, 0x05, 0xb3, 0xbd, 
0xcc, 0xd2, 0x0a, 0x3f, 0xe4, 0xaa, 0xc5, 0xbd, 0x77, 0x8d, 0x15, 0xbf, 
0xef, 0xf2, 0xbb, 0x3d, 0x6d, 0x63, 0x27, 0x3e, 0x3b, 0x82, 0x23, 0xbe, 
0xfe, 0xc8, 0x19, 0x3e, 0x63, 0x3e, 0x2d, 0xbe, 0xab, 0x8d, 0x46, 0x3c, 
0xab, 0xc3, 0x81, 0x3d, 0x2f, 0xd5, 0xf5, 0xbc, 0xbe, 0x73, 0x33, 0x3d, 
0x0f, 0x56, 0x03, 0xbe, 0x6f, 0xcf, 0xfd, 0x3e, 0xef, 0x94, 0xf4, 0x3e, 
0xb5, 0x4f, 0xb4, 0xbd, 0xae, 0x88, 0x63, 0x3f, 0x68, 0x9e, 0x2e, 0xbd, 
0x1a, 0x85, 0xfc, 0x3e, 0x33, 0x5a, 0x04, 0x3e, 0x2e, 0xae, 0x7e, 0x3f, 
0xdb, 0x37, 0xbe, 0xbd, 0x6b, 0xe4, 0xe4, 0x3e, 0x87, 0xe4, 0x22, 0xbe, 
0x46, 0xfb, 0x15, 0x3e, 0x49, 0xc0, 0x9a, 0xbe, 0x5a, 0xbf, 0x7b, 0x3e, 
0xca, 0xd1, 0xc8, 0xbe, 0xb5, 0x07, 0x47, 0x3f, 0x5e, 0xe8, 0xcd, 0x3c, 
0xc5, 0xb2, 0x24, 0x3e, 0x77, 0x80, 0x9c, 0x3e, 0x17, 0xf8, 0x31, 0xbd, 
0x76, 0xfa, 0x46, 0x3d, 0x17, 0xb7, 0x16, 0xbf, 0x67, 0x33, 0x3f, 0x3e, 
0x64, 0x71, 0x1d, 0xbf, 0x53, 0x5d, 0x8c, 0x3e, 0xfb, 0xd7, 0x9b, 0x3e, 
0x50, 0xbd, 0x01, 0xbf, 0x6d, 0xe4, 0xb1, 0xbd, 0x2b, 0x26, 0x48, 0xbf, 
0xb9, 0x0d, 0x26, 0x3f, 0x11, 0x42, 0xa3, 0xbe, 0x25, 0x6f, 0x0f, 0x3f, 
0x37, 0x4e, 0x8b, 0x3e, 0x8a, 0x58, 0xb8, 0x3e, 0x4f, 0xfa, 0x1e, 0xbe, 
0xe1, 0x6a, 0x00, 0xbf, 0x67, 0x4a, 0x45, 0x3c, 0x1d, 0xad, 0x90, 0x3e, 
0xb4, 0x2d, 0xe7, 0x3e, 0xc3, 0xf2, 0xb5, 0x3d, 0x21, 0x07, 0x38, 0x3e, 
0xaa, 0xb5, 0x3e, 0xbe, 0x6e, 0x43, 0xf9, 0x3e, 0xc2, 0x98, 0x17, 0x3e, 
0xd9, 0xb6, 0x37, 0x3f, 0xdd, 0xae, 0x2e, 0xbe, 0x19, 0x22, 0x21, 0x3e, 
0x81, 0x69, 0x3b, 0x3e, 0xb8, 0xa3, 0xa5, 0xbe, 0x13, 0x10, 0x4b, 0xbe, 
0xdb, 0x07, 0xc0, 0x3e, 0xb7, 0xa3, 0x95, 0xbe, 0xbd, 0x3d, 0x8f, 0xbe, 
0xe7, 0xe5, 0xeb, 0x3e, 0xd1, 0xba, 0xff, 0x3e, 0xb5, 0xb9, 0x68, 0xbd, 
0xc6, 0x21, 0xc7, 0x3e, 0xe8, 0x50, 0x54, 0x3c, 0x06, 0xcd, 0x87, 0x3e, 
0x2e, 0x1e, 0x10, 0x3e, 0xfc, 0x03, 0xf8, 0x3e, 0x37, 0x73, 0x0b, 0xbf, 
0xd7, 0x71, 0x99, 0xbe, 0xc3, 0xfb, 0xa9, 0xbe, 0x86, 0x4b, 0x08, 0xbf, 
0x58, 0x28, 0x11, 0xbf, 0x0b, 0x36, 0x0e, 0x3f, 0xe2, 0xcf, 0xfe, 0xbd, 
0xfd, 0xae, 0x5f, 0xbe, 0xbe, 0xcc, 0xba, 0x3e, 0xc2, 0x2e, 0x9d, 0x3e, 
0xd8, 0x9c, 0x55, 0x3d, 0x5d, 0x8e, 0x90, 0x3e, 0xb5, 0xfe, 0x38, 0xbe, 
0x14, 0xf6, 0x87, 0x3e, 0x8c, 0xad, 0x6e, 0x3c, 0x2f, 0x66, 0x4a, 0xbe, 
0xfd, 0x27, 0x8b, 0xbe, 0xed, 0x84, 0x33, 0xbe, 0x18, 0x8e, 0x15, 0xbe, 
0xd7, 0xa4, 0x0f, 0x3e, 0x6f, 0x4a, 0x4f, 0x3f, 0xdf, 0xbc, 0x79, 0x3e, 
0xed, 0x0d, 0x2c, 0xbe, 0xf2, 0x22, 0xc5, 0xbe, 0x6a, 0xd9, 0x4a, 0x3e, 
0x4b, 0x9c, 0xc4, 0x3e, 0x70, 0x8f, 0x83, 0xbe, 0xd6, 0x48, 0xf4, 0xbe, 
0xa9, 0x43, 0x38, 0xbe, 0x0a, 0xc0, 0x58, 0x3e, 0xc2, 0xf4, 0xdf, 0x3c, 
0x53, 0x50, 0x31, 0x3e, 0x93, 0x02, 0x89, 0x3d, 0xe9, 0x34, 0xa4, 0xbe, 
0xa3, 0xfa, 0x07, 0xbf, 0x35, 0xe8, 0xa1, 0xbe, 0x1d, 0x60, 0xd3, 0x3e, 
0x63, 0x00, 0x86, 0xbc, 0xf9, 0x1a, 0xd3, 0x3d, 0x3b, 0x1e, 0x6c, 0xbe, 
0xfc, 0x47, 0xdd, 0xbe, 0x84, 0x30, 0x2c, 0x3f, 0x7e, 0x64, 0x53, 0x3e, 
0x8c, 0x56, 0x1f, 0xbf, 0xf9, 0x29, 0x2b, 0xbd, 0x6e, 0x00, 0xe7, 0x3d, 
0x0d, 0x06, 0x27, 0xbe, 0x35, 0x87, 0x67, 0x3d, 0x8e, 0x91, 0x02, 0xbe, 
0x05, 0xd2, 0x89, 0x3e, 0x24, 0x75, 0x98, 0x3e, 0x0b, 0x87, 0x22, 0x3f, 
0x4c, 0x9c, 0x2d, 0x3f, 0x24, 0x6e, 0x66, 0x3e, 0x3b, 0x91, 0x41, 0x3f, 
0x72, 0x4a, 0x12, 0xbd, 0x64, 0xd3, 0xd0, 0xbe, 0xcb, 0x7c, 0x3b, 0xbd, 
0x55, 0xe1, 0x63, 0xbe, 0x0c, 0x94, 0x0e, 0xbd, 0xc4, 0xd5, 0xd8, 0xbe, 
0x59, 0x0c, 0x2e, 0x3c, 0xdb, 0x1b, 0x60, 0xbe, 0xd6, 0x92, 0xeb, 0xbe, 
0x70, 0xa7, 0xe8, 0x3d, 0x33, 0x79, 0x8e, 0x3e, 0x00, 0x27, 0xab, 0xbe, 
0x3e, 0xde, 0xfb, 0x3e, 0xb2, 0x17, 0x35, 0x3f, 0x4e, 0xbc, 0xaf, 0xbd, 
0x08, 0x42, 0xaa, 0xbb, 0xc4, 0x4f, 0xcb, 0x3d, 0xfc, 0x57, 0x0a, 0x3f, 
0xc0, 0xc6, 0xbd, 0x3e, 0x29, 0xac, 0x8a, 0x3e, 0xfd, 0xe2, 0x64, 0xbe, 
0x67, 0x79, 0x9e, 0xbe, 0x7b, 0x88, 0xb6, 0xbc, 0x2f, 0xcb, 0x6d, 0x3e, 
0x27, 0x43, 0xb3, 0xbc, 0xd3, 0x4a, 0x9d, 0xbe, 0xba, 0x62, 0x61, 0xbe, 
0x07, 0xf9, 0xe9, 0x3e, 0x43, 0xa4, 0x1e, 0x3f, 0x35, 0x43, 0x95, 0xbc, 
0x86, 0xfb, 0xbc, 0x3d, 0x84, 0xf5, 0xd1, 0x3e, 0x05, 0x2b, 0x43, 0xbd, 
0x07, 0x55, 0x0f, 0xbf, 0xdc, 0xf6, 0x66, 0xbe, 0x04, 0x05, 0xc3, 0x3e, 
0x23, 0x79, 0xf3, 0x3d, 0xea, 0xd1, 0x88, 0x3b, 0xef, 0xb4, 0x8f, 0xbd, 
0xdf, 0xaa, 0xd2, 0xbe, 0xe0, 0x83, 0x05, 0x3e, 0xfe, 0xa4, 0x94, 0x3e, 
0xa5, 0xdf, 0xe9, 0x3e, 0x39, 0x0d, 0x73, 0x3d, 0x97, 0x21, 0x24, 0x3e, 
0x81, 0x99, 0x6d, 0x3e, 0x06, 0x76, 0x10, 0xbf, 0x30, 0x53, 0xd9, 0xbe, 
0x9f, 0xe9, 0x71, 0xbe, 0x2b, 0x41, 0x3f, 0x3d, 0x9e, 0x6f, 0xbb, 0x3e, 
0x2d, 0x2e, 0xd2, 0xbc, 0xc3, 0xe3, 0xb1, 0xbb, 0x4a, 0xae, 0x67, 0xbf, 
0x7f, 0xe7, 0x2f, 0x3f, 0x38, 0x42, 0x14, 0x3e, 0x9b, 0x29, 0x39, 0x3e, 
0x98, 0xa8, 0x89, 0xbe, 0xbd, 0x96, 0xea, 0x3d, 0xc5, 0x11, 0x7a, 0xbf, 
0x53, 0xb7, 0xdc, 0x3e, 0xde, 0x8a, 0xb9, 0x3e, 0x69, 0xf1, 0x5b, 0x3c, 
0xad, 0xb3, 0x7a, 0x3e, 0x7d, 0x37, 0xe9, 0x3e, 0x00, 0x78, 0x43, 0xbe, 
0x34, 0x93, 0xde, 0x3e, 0xc9, 0x2d, 0xac, 0x3e, 0xf5, 0x3e, 0x4d, 0x3d, 
0x9d, 0x2c, 0x93, 0x3e, 0xeb, 0xff, 0x71, 0x3e, 0xb0, 0x85, 0x10, 0x3e, 
0xb2, 0x1f, 0xbb, 0x3e, 0x6e, 0x62, 0xaa, 0x3e, 0xd6, 0x72, 0x0d, 0xbf, 
0xc8, 0xb5, 0xd4, 0x3d, 0x29, 0x24, 0xb8, 0xbe, 0xda, 0xd1, 0x2c, 0x3d, 
0x5a, 0xf8, 0x92, 0x3e, 0x1f, 0x29, 0x45, 0xbe, 0x20, 0x54, 0xdd, 0xbe, 
0x9c, 0xf8, 0xd0, 0x3b, 0x79, 0x0f, 0x3e, 0x3d, 0x8f, 0xd7, 0x4a, 0xbf, 
0x66, 0x0f, 0x1a, 0xbf, 0x13, 0xa4, 0x5c, 0xbf, 0x81, 0xc8, 0x34, 0xbf, 
0xbe, 0x97, 0xa0, 0xbd, 0xdd, 0x67, 0xfc, 0xbe, 0xfc, 0xc1, 0x0f, 0x3e, 
0x6c, 0x37, 0x14, 0xbd, 0xdc, 0x55, 0x9f, 0x3e, 0x54, 0x89, 0x3b, 0xbe, 
0x2f, 0x4d, 0x16, 0xbd, 0x11, 0xcc, 0x7e, 0x3e, 0xaa, 0xb4, 0xd2, 0x3e, 
0xb6, 0x39, 0x4c, 0x3e, 0x41, 0x4e, 0x2b, 0x3f, 0x78, 0x70, 0x2b, 0xbe, 
0x8f, 0x40, 0x88, 0xbe, 0x5a, 0x46, 0xa5, 0xbd, 0xce, 0xe7, 0xe6, 0x3d, 
0xba, 0xae, 0x13, 0x3e, 0xf7, 0x69, 0xa0, 0x3e, 0xed, 0x1d, 0x16, 0xbe, 
0x0c, 0xab, 0x85, 0x3f, 0xe6, 0x6f, 0x6d, 0xbe, 0x60, 0x88, 0xab, 0xbe, 
0x3f, 0xe2, 0x06, 0xbc, 0x5d, 0xab, 0x34, 0x3e, 0xec, 0xdc, 0x30, 0x3e, 
0x66, 0xf3, 0x33, 0x3c, 0x8d, 0x13, 0x8c, 0x3e, 0xaf, 0x51, 0xca, 0x3e, 
0x80, 0xf4, 0x5a, 0x3e, 0x51, 0x4a, 0xeb, 0xbe, 0x30, 0x9e, 0xd2, 0xbd, 
0x0f, 0x00, 0xde, 0xbe, 0xcd, 0x4e, 0xc4, 0xbd, 0x44, 0xa9, 0xc1, 0x3e, 
0x8b, 0xcc, 0x27, 0xbe, 0x43, 0x36, 0x0d, 0x3f, 0x19, 0x6f, 0x1c, 0xbf, 
0xf6, 0xc9, 0xf4, 0xbd, 0xe7, 0x5f, 0xfa, 0xbe, 0x12, 0x9d, 0x44, 0xbe, 
0x8e, 0x34, 0x18, 0x3e, 0x3b, 0x45, 0x1b, 0xbf, 0xb7, 0xe8, 0x1f, 0x3e, 
0x53, 0xfe, 0x8e, 0x3e, 0x33, 0x69, 0x94, 0x3d, 0x0f, 0xde, 0x2a, 0xbf, 
0xa4, 0x95, 0x51, 0x3e, 0x2b, 0xce, 0x37, 0xbf, 0xbd, 0x09, 0x27, 0xbe, 
0x0f, 0xde, 0x26, 0xbe, 0x55, 0xc6, 0x2f, 0xbe, 0x3b, 0x66, 0x1b, 0xbd, 
0xe1, 0x5b, 0x04, 0xbe, 0x94, 0x41, 0x80, 0xbe, 0xd8, 0x0d, 0x8a, 0x3d, 
0x45, 0xf2, 0xc0, 0xbd, 0x88, 0x6f, 0x16, 0x3f, 0x26, 0xa4, 0x02, 0x3f, 
0xa2, 0x74, 0x17, 0xbf, 0x92, 0x5b, 0x9d, 0xbc, 0xdf, 0x89, 0x01, 0x3e, 
0xc7, 0x7b, 0x8c, 0xbd, 0x17, 0xc7, 0x22, 0xbf, 0x9e, 0xb5, 0x98, 0x3e, 
0x75, 0x5a, 0x6d, 0x3e, 0xb0, 0x76, 0x9c, 0xbe, 0x7a, 0x88, 0x8e, 0xbd, 
0x41, 0xea, 0x1c, 0xbe, 0x89, 0xf4, 0x10, 0xbe, 0x92, 0xcf, 0x9f, 0x3d, 
0xa0, 0x01, 0x6d, 0x3e, 0x60, 0x6f, 0x49, 0xbc, 0x0a, 0xea, 0x7d, 0x3e, 
0x6e, 0xaa, 0x8c, 0xbf, 0xb7, 0x67, 0x6d, 0x3f, 0xab, 0xa5, 0x8f, 0x3e, 
0xa5, 0xba, 0xa3, 0x3e, 0x56, 0xe3, 0x7f, 0x3c, 0xe9, 0x88, 0xfd, 0x3e, 
0x2b, 0xd5, 0xd1, 0x3e, 0x93, 0x2c, 0x29, 0x3e, 0xed, 0x59, 0xd4, 0x3e, 
0x5e, 0xba, 0x67, 0xbf, 0x4c, 0x71, 0x07, 0x3f, 0x6a, 0x9b, 0x8a, 0xbe, 
0xd5, 0x5a, 0x42, 0xbc, 0x9a, 0xaa, 0xf4, 0x3e, 0x9f, 0xd4, 0xe6, 0x3d, 
0xcc, 0x89, 0xd0, 0x3d, 0xad, 0xc7, 0xe5, 0xbd, 0xb4, 0x91, 0x0f, 0x3e, 
0xd8, 0xeb, 0xb1, 0x3e, 0x95, 0xc2, 0xf8, 0x3d, 0x33, 0x9e, 0x04, 0x3f, 
0x3f, 0x89, 0x9c, 0x3b, 0xf8, 0x8b, 0x06, 0x3e, 0xce, 0xa6, 0x0f, 0x3f, 
0x74, 0xe3, 0xed, 0xbd, 0xf2, 0x4e, 0xad, 0xbd, 0xdd, 0x94, 0xd4, 0xbc, 
0x6f, 0x39, 0x62, 0xbd, 0x37, 0x9c, 0x0d, 0x3f, 0x9e, 0xae, 0x2c, 0x3e, 
0x86, 0x97, 0x96, 0x3e, 0xf6, 0xde, 0x23, 0x3d, 0xe4, 0x9a, 0xf3, 0x3e, 
0x77, 0xa0, 0x69, 0x3d, 0x74, 0x8c, 0xd3, 0x3e, 0x33, 0xec, 0x1e, 0xbf, 
0xca, 0x50, 0x11, 0x3f, 0x94, 0xfa, 0x7d, 0xbe, 0x3c, 0x93, 0xbb, 0x3e, 
0xf7, 0x7c, 0x60, 0x3e, 0x76, 0x5f, 0xc1, 0xbd, 0x00, 0xac, 0x0e, 0x3f, 
0x23, 0x47, 0x22, 0xbf, 0x09, 0xac, 0x76, 0xbe, 0xe8, 0xad, 0x80, 0xbe, 
0xde, 0x57, 0xca, 0x3d, 0x7c, 0x0a, 0x00, 0x3d, 0xcc, 0x57, 0xf0, 0xba, 
0xd4, 0x49, 0x9f, 0x3c, 0x44, 0xf7, 0x28, 0xbe, 0x8d, 0x5f, 0x70, 0xbd, 
0x92, 0x44, 0x69, 0xbe, 0xad, 0x2e, 0x2b, 0x3d, 0xaf, 0x03, 0x75, 0xbe, 
0x30, 0x75, 0x37, 0x3e, 0x6e, 0xbe, 0x88, 0x3f, 0x50, 0x20, 0x0f, 0x3f, 
0xf7, 0xd3, 0x51, 0xbd, 0x03, 0x08, 0x18, 0xbf, 0x06, 0xe7, 0x0e, 0xbf, 
0x45, 0x00, 0x47, 0x3e, 0x32, 0xc5, 0x81, 0x3d, 0xeb, 0x3d, 0xee, 0xbc, 
0x6a, 0xea, 0x1e, 0xbf, 0x83, 0x73, 0xbb, 0x3e, 0xf1, 0x09, 0xe4, 0x3d, 
0x20, 0xae, 0xcd, 0xbd, 0x00, 0x88, 0x81, 0x3e, 0x22, 0xf6, 0x15, 0x3e, 
0x2a, 0x0c, 0xab, 0xbb, 0xc0, 0x47, 0x1b, 0x3e, 0x5d, 0xb8, 0xd5, 0x3e, 
0x4a, 0x31, 0x6c, 0x3e, 0x9c, 0xc8, 0xfc, 0x3e, 0x1a, 0xf1, 0x81, 0x3d, 
0xbd, 0x8b, 0x81, 0xbf, 0xee, 0x2d, 0x9e, 0x3e, 0x97, 0x04, 0x3b, 0x3f, 
0xdc, 0x6f, 0x79, 0x3e, 0x68, 0xd2, 0x36, 0xbe, 0x5c, 0x19, 0x22, 0xbd, 
0x55, 0x18, 0xf1, 0xbb, 0x67, 0xc7, 0xc2, 0xbb, 0x6f, 0xc5, 0x69, 0x3e, 
0x5f, 0x70, 0xbb, 0x3e, 0xa1, 0x9b, 0x29, 0x3d, 0xb7, 0xfa, 0x20, 0xbc, 
0x72, 0x0d, 0x2c, 0xbf, 0x6e, 0x52, 0x62, 0x3e, 0x14, 0x55, 0xd8, 0x3e, 
0x3f, 0xfb, 0xa1, 0xbe, 0xd4, 0x0e, 0x01, 0x3e, 0xd4, 0xc6, 0x8e, 0x3e, 
0xd3, 0xce, 0x99, 0x3e, 0xe9, 0xa9, 0x5f, 0x3e, 0xcd, 0x7a, 0x58, 0xbe, 
0x75, 0xb4, 0x3d, 0x3e, 0x86, 0xcf, 0x30, 0xbe, 0xbd, 0xd2, 0xad, 0xbe, 
0xe7, 0xe2, 0x77, 0x3e, 0xd8, 0x16, 0x8c, 0x3d, 0x6d, 0xf9, 0xb7, 0x3d, 
0x4c, 0xd3, 0x0d, 0x3f, 0x50, 0x8e, 0x5c, 0x3e, 0x48, 0x9c, 0xf7, 0xbe, 
0xa9, 0x02, 0x93, 0xbd, 0x04, 0x9a, 0xc2, 0x3d, 0x54, 0xf9, 0x94, 0x3f, 
0x8f, 0xac, 0x2e, 0xbf, 0xc3, 0x4f, 0xaf, 0x3d, 0x43, 0xaf, 0xb4, 0x3e, 
0x90, 0x76, 0x2e, 0x3e, 0xbc, 0x70, 0xa9, 0xbd, 0x2b, 0x30, 0xba, 0xbd, 
0x0a, 0x7c, 0xe6, 0xbe, 0x4d, 0x36, 0x33, 0x3f, 0x4e, 0xbe, 0x07, 0x3e, 
0x80, 0x1b, 0x20, 0xbe, 0x87, 0xcc, 0x11, 0x3f, 0xf6, 0x31, 0x09, 0x3e, 
0x72, 0x6b, 0xf1, 0x3c, 0xf3, 0xee, 0x90, 0xbe, 0x1a, 0x06, 0x05, 0x3e, 
0x03, 0x9e, 0xef, 0xbd, 0xde, 0xdc, 0x70, 0x3f, 0x25, 0xaa, 0x65, 0x3d, 
0x1d, 0x14, 0xe4, 0xbb, 0xff, 0x48, 0xc0, 0x3d, 0xa1, 0xa6, 0xb6, 0xbe, 
0x47, 0x15, 0x18, 0xbf, 0x19, 0x86, 0x5a, 0xbe, 0xe3, 0xe6, 0x3f, 0x3e, 
0xef, 0x07, 0x37, 0xbf, 0x87, 0xf6, 0x50, 0x3e, 0x1e, 0x37, 0x88, 0x3e, 
0x7c, 0x02, 0xab, 0x3b, 0xef, 0xea, 0xe5, 0xbd, 0x7d, 0x09, 0x1f, 0xbf, 
0xf6, 0xae, 0x03, 0xbd, 0x9a, 0x71, 0xa2, 0xbe, 0xed, 0xf4, 0xe6, 0xbd, 
0xa3, 0x67, 0x92, 0x3e, 0x87, 0xec, 0x80, 0xbe, 0xbc, 0xbe, 0x0b, 0x3f, 
0x85, 0x34, 0x71, 0x3e, 0x0c, 0xee, 0x4e, 0x3e, 0x67, 0x1c, 0x37, 0xbf, 
0x3e, 0xd6, 0xab, 0x3d, 0x95, 0xd8, 0x9d, 0x3d, 0x6a, 0xf3, 0xd3, 0x3d, 
0x72, 0xe0, 0xfe, 0xbd, 0xce, 0xca, 0x53, 0xbe, 0xe3, 0x27, 0x9c, 0x3e, 
0x82, 0x0a, 0xcc, 0x3d, 0x90, 0xa7, 0xcf, 0xbb, 0xf2, 0x7a, 0x86, 0xbe, 
0x21, 0x2b, 0x9d, 0x3e, 0xe4, 0x84, 0xbf, 0x3e, 0xf4, 0xa9, 0x60, 0x3e, 
0x39, 0x98, 0x14, 0xbf, 0xf1, 0x29, 0xcf, 0x3e, 0x0a, 0xfb, 0x9d, 0xbe, 
0x08, 0x40, 0xd4, 0xbd, 0x31, 0xdc, 0x84, 0x3d, 0xec, 0x4d, 0xe5, 0xbe, 
0xbd, 0x92, 0xfb, 0x3e, 0xf5, 0x51, 0x4b, 0x3e, 0xfd, 0xa2, 0xa7, 0xbe, 
0x59, 0x9a, 0x40, 0xbe, 0x95, 0x62, 0x3c, 0x3e, 0xa1, 0xf8, 0x6d, 0xbf, 
0xcf, 0x56, 0x8d, 0xbb, 0xca, 0xc9, 0xd9, 0x3e, 0xca, 0x7e, 0xda, 0xbe, 
0xea, 0x8d, 0x18, 0x3e, 0xf6, 0xef, 0xb5, 0xbd, 0xe0, 0x6f, 0xb4, 0x3d, 
0x2f, 0x45, 0x85, 0x3e, 0x73, 0x37, 0x0c, 0x3f, 0x08, 0xbd, 0x89, 0xbf, 
0xff, 0x4b, 0xa6, 0x3d, 0xcb, 0x17, 0x1e, 0xbf, 0x42, 0x8c, 0x15, 0x3e, 
0x8b, 0x13, 0x4f, 0x3e, 0x90, 0xaf, 0x1e, 0xbf, 0xf9, 0xc6, 0xa0, 0xbf, 
0xd5, 0xb8, 0x1d, 0xbf, 0x6d, 0x9f, 0xdc, 0xbe, 0xa4, 0xeb, 0x2e, 0xbf, 
0x1b, 0xb7, 0x21, 0xbd, 0xbc, 0xfd, 0xd3, 0x3e, 0x56, 0x99, 0xbd, 0x3e, 
0x97, 0x53, 0x28, 0x3f, 0xd2, 0x62, 0x3b, 0xbf, 0xbd, 0xda, 0x01, 0xbe, 
0x40, 0x28, 0xaf, 0xbe, 0x90, 0x5c, 0x06, 0xbe, 0xf0, 0xc0, 0xa8, 0x3e, 
0x59, 0x3e, 0x23, 0x3f, 0xfd, 0x48, 0xef, 0x3e, 0x58, 0x97, 0x67, 0xbe, 
0xc2, 0x82, 0xe7, 0xbe, 0x94, 0x26, 0x0e, 0x3f, 0x57, 0xef, 0x52, 0xbf, 
0xfc, 0x5d, 0xdc, 0x3d, 0x52, 0x15, 0x0c, 0x3f, 0x24, 0x29, 0xe6, 0x3d, 
0xb4, 0xe7, 0xbe, 0x3d, 0x5f, 0x8b, 0xf7, 0x3d, 0xc4, 0x07, 0x7c, 0xbe, 
0x50, 0x1e, 0xee, 0xbe, 0x3d, 0x54, 0x26, 0x3f, 0x46, 0xe1, 0x0f, 0x3f, 
0x53, 0x07, 0x56, 0x3e, 0x5f, 0x37, 0xcf, 0x3e, 0x3c, 0xe7, 0x56, 0x3d, 
0x29, 0x40, 0x80, 0xbd, 0x05, 0xf3, 0xae, 0x3e, 0x34, 0xb4, 0x8f, 0x3e, 
0x4b, 0xc7, 0xa5, 0x3e, 0xe8, 0x23, 0x16, 0xbf, 0x09, 0xe0, 0x9f, 0xbe, 
0xbd, 0xdb, 0x1f, 0xbe, 0xc1, 0xa8, 0x0b, 0x3f, 0xa3, 0x59, 0x07, 0xbf, 
0x97, 0xb0, 0x9a, 0xbf, 0x9b, 0x42, 0x34, 0xbe, 0x20, 0x75, 0x5d, 0x3e, 
0x72, 0xdf, 0xdb, 0x3e, 0x82, 0x75, 0xf3, 0xbe, 0xab, 0xfe, 0x24, 0xbf, 
0x95, 0xf9, 0x3b, 0x3e, 0xef, 0xc2, 0xc3, 0xbe, 0xf9, 0xb7, 0xab, 0xbc, 
0x70, 0xee, 0xf3, 0xbe, 0x96, 0xf7, 0x0c, 0xbf, 0x2a, 0xf0, 0x30, 0xbf, 
0xf1, 0x34, 0xe9, 0xbe, 0x8f, 0x1e, 0xdb, 0xbd, 0xa1, 0x11, 0xb5, 0xbe, 
0x78, 0x2d, 0x00, 0xbf, 0x0f, 0x07, 0x0d, 0xbf, 0x10, 0xdf, 0x33, 0x3e, 
0x29, 0x28, 0x00, 0x3f, 0xe1, 0x54, 0x7e, 0x3c, 0x0f, 0xe4, 0x9e, 0xbd, 
0x6f, 0x4d, 0xae, 0x3b, 0x42, 0x97, 0xd2, 0x3e, 0xb6, 0x25, 0x95, 0x3f, 
0x51, 0x43, 0xa7, 0xbe, 0x9e, 0x93, 0x9a, 0x3e, 0xf7, 0xf3, 0x9e, 0xbd, 
0x87, 0x65, 0x72, 0x3d, 0xe1, 0xe7, 0x18, 0x3e, 0x53, 0x2b, 0x4c, 0x3e, 
0x72, 0x02, 0x62, 0xbe, 0xaa, 0x61, 0x7f, 0x3e, 0x39, 0x30, 0xdf, 0xbc, 
0x52, 0xb6, 0x99, 0xbe, 0x77, 0x7d, 0x82, 0x3d, 0x51, 0x9e, 0x68, 0xbc, 
0xfd, 0xf7, 0x99, 0x3d, 0x8f, 0xb5, 0x0f, 0xbf, 0x17, 0x36, 0x80, 0xbd, 
0xf3, 0x13, 0xc8, 0xbe, 0x56, 0x98, 0x1a, 0xbe, 0x49, 0x50, 0x13, 0x3f, 
0x5e, 0x51, 0xc8, 0x3c, 0x54, 0x63, 0x27, 0x3e, 0xef, 0x89, 0xbd, 0xbe, 
0x10, 0xf2, 0x79, 0xbd, 0xdc, 0xc2, 0xb5, 0xbe, 0xd0, 0xcc, 0xf1, 0x38, 
0xbc, 0x41, 0x43, 0x3b, 0x8d, 0xbe, 0x41, 0x3e, 0xea, 0xea, 0xd8, 0x3e, 
0xb8, 0xfa, 0x44, 0xbe, 0x53, 0x9e, 0x94, 0x3e, 0x3d, 0x8a, 0x34, 0xbe, 
0x22, 0x69, 0x0d, 0x3e, 0x4e, 0xe9, 0xaf, 0x3e, 0x54, 0xf2, 0x5f, 0x3d, 
0x82, 0xea, 0x69, 0x3d, 0x41, 0x3d, 0x04, 0x3d, 0x74, 0xac, 0x93, 0xbd, 
0x02, 0x0c, 0x33, 0x3f, 0xe9, 0xb7, 0x08, 0xbe, 0x5c, 0xb7, 0x2f, 0xbe, 
0xe7, 0x65, 0x68, 0x3e, 0xfc, 0x25, 0xd9, 0xbc, 0x7a, 0x0e, 0x50, 0x3d, 
0x9d, 0xf1, 0x8c, 0x3d, 0xee, 0x59, 0x12, 0x3f, 0x0d, 0x1f, 0x42, 0x3f, 
0x46, 0x2a, 0xcc, 0x3e, 0x70, 0x49, 0x18, 0x3f, 0xde, 0x12, 0x04, 0x3f, 
0x32, 0x70, 0x8f, 0x3d, 0xae, 0x88, 0xf4, 0xbe, 0x4e, 0x6f, 0xec, 0x3e, 
0xc1, 0x9e, 0xe6, 0x3e, 0xdb, 0x67, 0xf7, 0x3d, 0x1d, 0x4f, 0xbd, 0x3e, 
0xdb, 0xe0, 0x7d, 0x3e, 0x14, 0xac, 0x10, 0x3c, 0x33, 0x3a, 0x21, 0x3e, 
0xcb, 0x9d, 0xd0, 0x3e, 0xa8, 0x3b, 0x1b, 0xbe, 0x35, 0x87, 0xc4, 0xbd, 
0x66, 0x1f, 0x35, 0x3e, 0x7d, 0xd2, 0x91, 0xbe, 0x53, 0x29, 0x3a, 0x3e, 
0xc7, 0xc0, 0x17, 0x3e, 0xe7, 0xf5, 0x39, 0xbf, 0x2c, 0xe0, 0x2b, 0x3e, 
0x62, 0x89, 0xdf, 0x3d, 0xec, 0x6b, 0x46, 0x3e, 0x21, 0xa8, 0x11, 0x3e, 
0x18, 0x7e, 0x68, 0xbc, 0x3d, 0x43, 0xa7, 0x3d, 0x8f, 0xb6, 0x32, 0xbd, 
0x0a, 0x98, 0xc6, 0x3d, 0x0e, 0x25, 0x57, 0x3e, 0x59, 0xea, 0xa5, 0xbe, 
0xf7, 0x09, 0xd9, 0xbd, 0xfd, 0x81, 0x12, 0x3d, 0xbe, 0x75, 0xd1, 0xbe, 
0x08, 0x02, 0xc9, 0xbd, 0xb7, 0x8c, 0xdb, 0xbc, 0xf0, 0xe2, 0x26, 0x3e, 
0x10, 0xd6, 0x2b, 0x3e, 0xab, 0xd4, 0xcd, 0xbc, 0x92, 0x0c, 0x12, 0x3e, 
0x61, 0x33, 0xd6, 0xbe, 0x11, 0xb3, 0x52, 0x3e, 0x4d, 0xae, 0x3e, 0x3f, 
0xd4, 0x7e, 0x3d, 0xbd, 0xe2, 0x65, 0x8c, 0x3c, 0x38, 0x4c, 0xc6, 0x3d, 
0xad, 0x31, 0xed, 0x3e, 0x5e, 0x27, 0x1c, 0xbf, 0x46, 0x10, 0x2c, 0xbe, 
0x36, 0xf6, 0x13, 0x3e, 0xc1, 0x6a, 0x91, 0x3d, 0x4f, 0x3b, 0x8a, 0x3e, 
0xe9, 0xa0, 0x15, 0x3e, 0x56, 0x63, 0x2c, 0x3f, 0x79, 0x83, 0xc2, 0xbe, 
0x61, 0xbe, 0xf8, 0x3e, 0xe8, 0x3c, 0x9a, 0x3d, 0xee, 0xf9, 0x1d, 0xbe, 
0x17, 0x9e, 0x46, 0x3e, 0x20, 0xa6, 0x2d, 0xbf, 0x61, 0x82, 0x8a, 0x3e, 
0x45, 0x95, 0x40, 0x3d, 0x84, 0x4c, 0x0f, 0xbe, 0xc3, 0x55, 0xcb, 0xbe, 
0x1c, 0xf8, 0x25, 0xbe, 0xdc, 0xb8, 0x83, 0xbe, 0x0f, 0xbb, 0x9d, 0x3d, 
0xdb, 0x6c, 0x0a, 0xbd, 0x52, 0x91, 0x9a, 0x3e, 0x32, 0x55, 0x6b, 0x3e, 
0xfe, 0xb7, 0x2d, 0xbc, 0x19, 0x4b, 0xe1, 0xbe, 0xc7, 0x8f, 0x8a, 0xbc, 
0xe5, 0x25, 0xf8, 0xbc, 0xd5, 0x62, 0x9d, 0x3e, 0xaf, 0x30, 0xdf, 0x3e, 
0x11, 0x71, 0x89, 0x3e, 0xfa, 0x4a, 0x70, 0xbc, 0xb9, 0xd8, 0x85, 0xbd, 
0xe6, 0x78, 0x02, 0xbd, 0x9c, 0xcb, 0xab, 0x3e, 0x50, 0x22, 0x07, 0x3f, 
0xc0, 0xf5, 0xd0, 0xbe, 0x26, 0x18, 0x58, 0xbe, 0xde, 0x7d, 0x87, 0xbe, 
0xde, 0x93, 0x3d, 0xbc, 0xf2, 0x45, 0x12, 0x3e, 0x65, 0x57, 0xc1, 0xbe, 
0x21, 0x10, 0x9e, 0xbe, 0x7a, 0x25, 0xaa, 0x3e, 0xb8, 0xc8, 0x6a, 0xbe, 
0x73, 0x08, 0x3f, 0xbf, 0x25, 0x21, 0xd8, 0x3e, 0xcd, 0xec, 0x44, 0x3f, 
0x4e, 0xe9, 0xf1, 0xbd, 0xcd, 0x93, 0xf9, 0xbd, 0x2b, 0x49, 0x59, 0xbe, 
0x16, 0x5c, 0x2e, 0x3d, 0xcc, 0x4e, 0xd9, 0xbe, 0x73, 0x1e, 0x5e, 0x3f, 
0x88, 0x76, 0xf0, 0x3e, 0xca, 0x6c, 0x05, 0x3f, 0x2f, 0x53, 0x4e, 0x3e, 
0x32, 0x60, 0xb5, 0x3e, 0x2b, 0x1f, 0x54, 0x3e, 0x66, 0x5e, 0xba, 0x3e, 
0x30, 0x2f, 0x94, 0xbe, 0x1c, 0x76, 0xcf, 0x3e, 0xc9, 0xd5, 0x90, 0x3e, 
0x3b, 0xaf, 0x0d, 0x3f, 0xf9, 0xff, 0x90, 0xbe, 0xc9, 0xa6, 0xc7, 0x3e, 
0x18, 0x5a, 0x37, 0xbe, 0x05, 0x22, 0x92, 0x3e, 0x1d, 0x6b, 0x3d, 0x3f, 
0x7b, 0x72, 0x8b, 0xbf, 0x5f, 0x51, 0x53, 0xbe, 0xfd, 0xbc, 0xcb, 0xbe, 
0x84, 0x3a, 0x08, 0xbd, 0x9e, 0x43, 0xfe, 0x3d, 0xff, 0xc1, 0xdd, 0xbe, 
0xab, 0x69, 0xfd, 0x3c, 0xc7, 0x3d, 0xd8, 0x3d, 0xcf, 0xc2, 0x33, 0xbf, 
0x00, 0xde, 0xb7, 0xbe, 0x50, 0x5b, 0x38, 0x3d, 0x3a, 0xb3, 0x61, 0x3e, 
0xc7, 0xd4, 0xb1, 0xbe, 0x0c, 0x15, 0x03, 0x3e, 0xc6, 0x4e, 0xa8, 0x3e, 
0xe2, 0xdf, 0x0a, 0x3f, 0x88, 0x41, 0x3f, 0x3e, 0xe9, 0x79, 0xaf, 0x3e, 
0x8d, 0x9c, 0xf4, 0xbd, 0x48, 0xaa, 0x0c, 0xbe, 0xa8, 0x1d, 0xa9, 0xbd, 
0xa4, 0x07, 0x24, 0xbe, 0x3e, 0x8b, 0xdc, 0xbd, 0xda, 0xf5, 0x42, 0x3f, 
0x8d, 0x06, 0xdf, 0xbe, 0xa5, 0x43, 0x8b, 0xbe, 0x27, 0x32, 0x8e, 0xbe, 
0xb1, 0xe7, 0xc5, 0xbe, 0x94, 0x73, 0x67, 0x3d, 0x44, 0x55, 0x17, 0x3f, 
0x3f, 0xa6, 0x8c, 0x3d, 0x1c, 0xb3, 0x49, 0xbe, 0x4a, 0xdb, 0xf7, 0x3e, 
0x35, 0xcb, 0x03, 0xbd, 0x4c, 0x5a, 0xdb, 0x3d, 0xf1, 0xee, 0xda, 0x3d, 
0x77, 0x0f, 0xc2, 0x3e, 0xbc, 0x6a, 0x04, 0xbe, 0xfb, 0xbc, 0x6c, 0x3e, 
0x98, 0x50, 0xde, 0xbe, 0x9e, 0x2f, 0x9e, 0xbe, 0xe7, 0xee, 0xa4, 0xbe, 
0xde, 0x34, 0x0c, 0xbe, 0x2e, 0x5d, 0xcd, 0xbe, 0x15, 0x09, 0xa4, 0x3d, 
0x76, 0x83, 0x05, 0xbe, 0x07, 0x41, 0xd9, 0xbe, 0xa1, 0x80, 0x78, 0x3b, 
0xf9, 0xe2, 0x04, 0xbf, 0xa4, 0xf8, 0x05, 0x3e, 0x3b, 0xfd, 0xa6, 0x3e, 
0xb8, 0xd8, 0x8c, 0x3e, 0x66, 0x53, 0xc0, 0xbd, 0x3f, 0xd1, 0xe0, 0xbd, 
0xef, 0x74, 0x29, 0x3e, 0xac, 0x95, 0xf5, 0xbd, 0x47, 0xc5, 0xbd, 0xbc, 
0x3b, 0xb6, 0x83, 0xbe, 0xd6, 0xc0, 0xc5, 0x3e, 0xa4, 0x1b, 0x3d, 0xbf, 
0x35, 0x01, 0xd0, 0x3e, 0x06, 0x28, 0x90, 0x3e, 0xbf, 0xca, 0x86, 0xbc, 
0xec, 0x8d, 0x32, 0x3f, 0x98, 0x77, 0x39, 0xbf, 0x5f, 0xb4, 0x68, 0x3e, 
0x24, 0x5f, 0x9a, 0xbd, 0x46, 0xb2, 0x44, 0xbe, 0x01, 0xa8, 0x42, 0x3e, 
0x51, 0xf8, 0x6b, 0x3f, 0xd5, 0xfd, 0xda, 0x3e, 0xe5, 0xd7, 0xce, 0x3e, 
0x7b, 0xc0, 0x98, 0xbd, 0x7f, 0x99, 0xdb, 0x3c, 0x96, 0xab, 0xf6, 0x3e, 
0x1a, 0xd8, 0xfa, 0xbc, 0xb0, 0x46, 0xc2, 0xbe, 0x83, 0x51, 0x83, 0xbe, 
0x72, 0x5b, 0x90, 0xbe, 0xc1, 0xff, 0x96, 0xbc, 0xdd, 0x47, 0x43, 0x3e, 
0x91, 0xc1, 0xa6, 0x3d, 0xa6, 0xad, 0x28, 0x3e, 0xce, 0xec, 0xd1, 0xbd, 
0xd0, 0x0a, 0x66, 0xbd, 0xd9, 0x95, 0xd1, 0x3e, 0xef, 0xda, 0x04, 0x3e, 
0x01, 0x9e, 0x15, 0x3f, 0x3d, 0xf3, 0xc7, 0x3e, 0x70, 0xf2, 0xd1, 0x3e, 
0xae, 0x26, 0x07, 0x3f, 0x92, 0x84, 0xab, 0x3e, 0x47, 0x2c, 0xbc, 0xbe, 
0xdb, 0x86, 0x50, 0x3d, 0xba, 0x40, 0x09, 0xbe, 0x5c, 0xc5, 0x0e, 0x3e, 
0x8b, 0xfd, 0x00, 0xbf, 0x5b, 0x93, 0xc9, 0x3d, 0xa4, 0xe6, 0xdc, 0xbe, 
0x57, 0x2c, 0x50, 0x3f, 0x58, 0xcc, 0x10, 0xbd, 0xc5, 0x67, 0x05, 0xbe, 
0x07, 0x25, 0x87, 0x3d, 0x96, 0x4e, 0x9d, 0x3e, 0xf2, 0x85, 0x93, 0x3e, 
0xba, 0xa2, 0x25, 0xbf, 0xb1, 0x6c, 0xb1, 0xbe, 0x6c, 0xdf, 0x66, 0x3d, 
0xe5, 0xec, 0x59, 0xbe, 0xdd, 0xf4, 0x41, 0x3c, 0x10, 0x0b, 0x96, 0xbe, 
0x75, 0x9b, 0xaf, 0xbe, 0x6e, 0x2a, 0x7b, 0xbe, 0xe7, 0x20, 0x2a, 0xbf, 
0xec, 0xa3, 0x95, 0xbe, 0x51, 0xb8, 0xb8, 0xbe, 0xd1, 0x1a, 0x91, 0xbd, 
0x9b, 0xb8, 0x5f, 0xbe, 0xff, 0x32, 0xf8, 0x3d, 0x51, 0x88, 0xa3, 0xbd, 
0x69, 0xe2, 0x4d, 0xbe, 0xd6, 0x40, 0xb5, 0xbe, 0xac, 0x61, 0x26, 0xbe, 
0xbd, 0xdf, 0xb4, 0x3e, 0x01, 0x73, 0x9f, 0xbe, 0x47, 0x01, 0x87, 0xbe, 
0x05, 0x4c, 0xf9, 0xbd, 0x3d, 0xeb, 0x17, 0xbf, 0x76, 0x72, 0x8d, 0x3e, 
0x0a, 0xc6, 0xc4, 0x3e, 0xb8, 0x61, 0xba, 0xbd, 0x95, 0x85, 0x91, 0xbd, 
0x6e, 0x96, 0xd0, 0xbc, 0xf4, 0xd3, 0xcc, 0xbd, 0xe8, 0x9d, 0xa0, 0xbe, 
0x22, 0x31, 0xc9, 0xbd, 0x4d, 0xdc, 0x27, 0xbf, 0x39, 0xad, 0x31, 0x3d, 
0x1f, 0x0b, 0xcb, 0x3e, 0xdb, 0xcb, 0x5d, 0x3e, 0x81, 0x12, 0x4d, 0x3e, 
0xfb, 0x98, 0xd0, 0xbc, 0xe9, 0xef, 0x30, 0x3d, 0x3a, 0x0e, 0x16, 0x3c, 
0x67, 0x29, 0xc0, 0xbe, 0xcc, 0xab, 0xa8, 0xbe, 0xf1, 0xca, 0xf2, 0x3e, 
0xab, 0xe7, 0xc8, 0x3e, 0xef, 0xfb, 0x90, 0xbe, 0xa8, 0xd3, 0xe1, 0xbe, 
0xe8, 0x3e, 0x1d, 0xbe, 0xd0, 0x67, 0x3b, 0xbe, 0x54, 0x7f, 0x56, 0x3d, 
0x45, 0x6f, 0x17, 0x3f, 0xda, 0x71, 0x3e, 0x3e, 0x64, 0x8e, 0x12, 0xbe, 
0xfd, 0x93, 0x8d, 0x3d, 0x88, 0x64, 0xf0, 0xbe, 0x60, 0x79, 0xc6, 0x3e, 
0x38, 0x92, 0x8b, 0xbe, 0x7f, 0x84, 0xc9, 0xbd, 0xa8, 0xd3, 0x27, 0x3f, 
0xdd, 0xbe, 0x1f, 0xbf, 0x8c, 0x12, 0xf9, 0x3e, 0xf5, 0x38, 0x72, 0xbd, 
0xae, 0x3e, 0x00, 0xbf, 0xbe, 0x2e, 0x39, 0x3d, 0x98, 0x2a, 0xc9, 0x3e, 
0xb7, 0x0b, 0x33, 0x3e, 0xcc, 0xfa, 0x01, 0xbd, 0xc6, 0x60, 0x6d, 0x3e, 
0x6d, 0x75, 0xc0, 0x3e, 0xbf, 0x0f, 0x19, 0xbe, 0x90, 0xe9, 0x1b, 0x3f, 
0xc0, 0x39, 0x2f, 0xbf, 0xd8, 0x1a, 0x94, 0xbc, 0x9f, 0x88, 0x11, 0xbf, 
0x5f, 0x33, 0x12, 0xbf, 0x0c, 0xb8, 0xcf, 0xbe, 0xb9, 0x0a, 0x93, 0xbe, 
0x0d, 0xa6, 0xc3, 0xbc, 0xff, 0xb2, 0x62, 0xbe, 0x08, 0x2b, 0xcb, 0xbe, 
0x0c, 0x83, 0xce, 0x3d, 0x7e, 0xb1, 0xd4, 0x3e, 0x5c, 0x53, 0x05, 0xbe, 
0xeb, 0x8d, 0xc4, 0xbd, 0x27, 0xe1, 0x91, 0x3e, 0x18, 0x71, 0x17, 0xbf, 
0xe5, 0xb2, 0xe9, 0xbd, 0x94, 0xb2, 0xbe, 0x3c, 0x6e, 0x5d, 0x1f, 0x3e, 
0xcc, 0x15, 0xd3, 0x3e, 0xe6, 0x81, 0x53, 0x39, 0x90, 0xa8, 0x93, 0xbe, 
0xa0, 0x8e, 0x32, 0x3e, 0x52, 0x4b, 0x02, 0x3e, 0xeb, 0xfd, 0x7f, 0x3e, 
0x81, 0xb1, 0xfe, 0xbe, 0x27, 0xc0, 0x2b, 0xbf, 0x3c, 0x88, 0x6d, 0x3e, 
0x14, 0x0e, 0xbd, 0xbd, 0x96, 0x5c, 0xf6, 0x3e, 0xda, 0xd9, 0xb2, 0xbd, 
0x7b, 0xe0, 0x14, 0x3d, 0x6d, 0x7d, 0x03, 0xbf, 0x28, 0x58, 0xbd, 0xbe, 
0x05, 0xef, 0x2f, 0xbd, 0x50, 0xbc, 0x15, 0xbf, 0x19, 0xa4, 0x52, 0xbe, 
0xc5, 0x0d, 0x8b, 0x3e, 0xfa, 0x90, 0x81, 0xbe, 0xd8, 0x83, 0x17, 0x3e, 
0xb0, 0x33, 0xfd, 0xbe, 0x95, 0xde, 0xa4, 0xbe, 0x59, 0x73, 0x5f, 0x3d, 
0x40, 0xab, 0x62, 0x3e, 0x83, 0x38, 0x46, 0xbe, 0xcd, 0xba, 0xb3, 0xbd, 
0xd0, 0x07, 0x76, 0x3c, 0xbf, 0xf2, 0xfa, 0x3d, 0x3c, 0xe4, 0xd3, 0x3d, 
0xd4, 0xbf, 0x7d, 0x3e, 0x31, 0xb8, 0xb5, 0x3e, 0x00, 0xd2, 0xec, 0xbe, 
0x8c, 0x23, 0x7d, 0x3e, 0xfd, 0xa0, 0x1c, 0x3c, 0x76, 0xd6, 0x27, 0xbe, 
0xab, 0x27, 0xf4, 0xbe, 0x1b, 0xcd, 0xaa, 0x3c, 0x3c, 0x49, 0x41, 0x3e, 
0xb2, 0x1f, 0x71, 0xbf, 0x6e, 0xee, 0x0c, 0xbf, 0x32, 0x1e, 0x8b, 0xbe, 
0xc2, 0x53, 0x7f, 0x3d, 0xce, 0xfa, 0xc9, 0xbe, 0x35, 0x0a, 0x1d, 0xbc, 
0x6b, 0xf5, 0xb0, 0x3e, 0xb0, 0x56, 0x02, 0xbf, 0x00, 0x71, 0x1e, 0x3e, 
0x60, 0xd7, 0x80, 0xbf, 0x00, 0x0c, 0xfb, 0xbd, 0xeb, 0x7b, 0x6f, 0xbe, 
0x69, 0x53, 0x3a, 0xbe, 0xed, 0xdf, 0x27, 0xbe, 0x2d, 0x87, 0x0f, 0xbf, 
0xc3, 0xef, 0x07, 0x3e, 0x4e, 0xa4, 0x45, 0xba, 0xa6, 0xc9, 0xae, 0xbd, 
0x67, 0x8c, 0x6a, 0x3e, 0x31, 0x4a, 0x2b, 0xbe, 0x19, 0xbb, 0x6e, 0xbe, 
0x45, 0xbe, 0x27, 0xbf, 0x34, 0xbc, 0x6b, 0xbe, 0xfb, 0xa7, 0xb0, 0x3d, 
0x90, 0x5a, 0x89, 0x3e, 0x06, 0x40, 0x83, 0x3e, 0xe4, 0x88, 0xac, 0xbd, 
0xf1, 0x5a, 0xa7, 0xbe, 0x67, 0x85, 0x2f, 0xbf, 0x03, 0x66, 0x45, 0x3f, 
0x07, 0x5c, 0x87, 0x3f, 0x7b, 0x7f, 0x3b, 0x3e, 0x55, 0xf6, 0x28, 0xbe, 
0x25, 0xab, 0xd2, 0xbe, 0xfa, 0x63, 0xa7, 0xbe, 0x6f, 0x37, 0x1f, 0xbe, 
0x41, 0x44, 0xd4, 0x3e, 0x93, 0xb6, 0xc9, 0x3e, 0xdc, 0xe3, 0xc4, 0x3e, 
0x38, 0x7a, 0x11, 0xbe, 0xff, 0x4a, 0x3c, 0xbf, 0xe9, 0x78, 0x01, 0x3e, 
0x93, 0x71, 0x2d, 0x3f, 0x44, 0x5c, 0xfa, 0xbe, 0x0d, 0x1f, 0x10, 0x3d, 
0x8e, 0xd5, 0xba, 0xbe, 0x06, 0x0a, 0xa3, 0x3e, 0x0d, 0x1e, 0x5b, 0x3d, 
0x89, 0x42, 0x34, 0x3f, 0xf1, 0xf0, 0xad, 0x3e, 0x34, 0xcd, 0x22, 0xbe, 
0x71, 0x16, 0x33, 0x3e, 0x7f, 0x64, 0xac, 0xbe, 0x22, 0x13, 0xe5, 0x3e, 
0x65, 0xfd, 0x23, 0xbe, 0xf5, 0x45, 0x2e, 0xbe, 0xa4, 0xe5, 0x15, 0x3e, 
0x26, 0x2f, 0x13, 0xbf, 0x89, 0x86, 0x52, 0xbf, 0x56, 0xdb, 0xfb, 0xbc, 
0x96, 0xbf, 0x89, 0xbe, 0xd4, 0xa4, 0xcf, 0xbe, 0x0b, 0xb6, 0xa8, 0x3c, 
0x69, 0xa9, 0x2c, 0x3f, 0x7a, 0xbc, 0x44, 0x3e, 0x0a, 0xbb, 0xc5, 0x3e, 
0x31, 0xe4, 0xc8, 0xbe, 0x03, 0x28, 0x0e, 0x3f, 0x79, 0x78, 0x0e, 0x3f, 
0x5d, 0xd6, 0x36, 0xbe, 0x2b, 0x31, 0x25, 0x3f, 0x3a, 0x6c, 0x4c, 0x3d, 
0x39, 0x6d, 0xb5, 0x3e, 0x62, 0xfe, 0x23, 0x3e, 0x5d, 0xe5, 0x0c, 0xbf, 
0x7d, 0xa5, 0xd8, 0xbd, 0x9a, 0x86, 0xe2, 0xbe, 0x73, 0xbe, 0xc5, 0xbc, 
0x87, 0x91, 0xb9, 0x3e, 0x47, 0x85, 0xac, 0xbe, 0x76, 0xbf, 0x45, 0x3f, 
0x9d, 0x46, 0x8c, 0xbe, 0x03, 0x4b, 0xfc, 0xbc, 0xec, 0x04, 0xa1, 0xbe, 
0x07, 0x2d, 0xd4, 0xbb, 0x90, 0x7a, 0x3b, 0xbf, 0xd3, 0xe3, 0x89, 0xbd, 
0x90, 0x2f, 0xd8, 0x3e, 0x4e, 0xd6, 0xd6, 0xbd, 0x88, 0xfe, 0x2d, 0x3f, 
0x41, 0x9d, 0xeb, 0x3d, 0x54, 0x14, 0x26, 0x3f, 0x8f, 0x8a, 0x9a, 0xbc, 
0xf3, 0xa8, 0xe1, 0xbe, 0xfc, 0xe3, 0xee, 0xbe, 0xe6, 0xcd, 0xe1, 0xbe, 
0xaa, 0xaa, 0x50, 0xbf, 0x67, 0x48, 0xd6, 0xbd, 0x18, 0x23, 0x1f, 0xbe, 
0xa4, 0xce, 0x1f, 0x3e, 0x39, 0x3b, 0x2e, 0xbd, 0x3e, 0x01, 0xf9, 0x3c, 
0x0d, 0x04, 0x62, 0xbe, 0x91, 0x4e, 0x02, 0xbe, 0x28, 0x0d, 0x76, 0xbe, 
0x96, 0x5a, 0x4b, 0xbe, 0x2f, 0xb3, 0xd0, 0xbe, 0xba, 0x68, 0xeb, 0xbd, 
0x7b, 0x7c, 0xd2, 0x3d, 0xd3, 0x55, 0x05, 0xbf, 0x62, 0x99, 0x65, 0xbe, 
0x25, 0xd8, 0x85, 0xbd, 0x68, 0xee, 0xaa, 0xbe, 0xb3, 0x09, 0xa5, 0x3e, 
0x52, 0x97, 0xac, 0x3e, 0x47, 0x4f, 0x1c, 0x3f, 0x96, 0x9f, 0xbb, 0x3e, 
0x4e, 0x25, 0xce, 0xbd, 0xe0, 0xaf, 0x73, 0x3f, 0xfd, 0xcc, 0x9c, 0x3d, 
0x94, 0xcb, 0x0d, 0x3f, 0xd3, 0xf4, 0xad, 0x3e, 0xc1, 0x34, 0xe2, 0xbe, 
0xd9, 0x93, 0xc5, 0x3e, 0x56, 0x20, 0xbf, 0xbe, 0x90, 0xfd, 0x8b, 0x3e, 
0x8f, 0xae, 0x4e, 0xbd, 0xcc, 0x40, 0xb2, 0x3e, 0xd5, 0xd8, 0x33, 0xbf, 
0x31, 0x30, 0x33, 0xbf, 0x02, 0xd9, 0xc5, 0xbe, 0x50, 0xe8, 0xee, 0x3e, 
0x01, 0xe0, 0xff, 0xbe, 0x27, 0xf7, 0x8f, 0xbd, 0x9d, 0x7b, 0xc9, 0x3e, 
0xc7, 0x36, 0xd7, 0xbd, 0x70, 0x35, 0x2a, 0xbf, 0x72, 0x37, 0xb3, 0xbe, 
0x42, 0x57, 0x23, 0x3d, 0xa3, 0x53, 0x02, 0xbf, 0x4d, 0x79, 0x16, 0xbf, 
0x8d, 0x3d, 0x0f, 0xbf, 0xaa, 0x83, 0x05, 0xbe, 0x7e, 0xed, 0xca, 0xbd, 
0x85, 0x09, 0xc7, 0x3e, 0x1c, 0x98, 0x94, 0x3d, 0x86, 0xed, 0xfc, 0x3e, 
0x88, 0xc4, 0x6d, 0x3f, 0xcf, 0x66, 0xb4, 0xbe, 0x6b, 0xd1, 0x04, 0xbf, 
0xd6, 0x2a, 0x28, 0xbe, 0x7f, 0x98, 0xd9, 0x3e, 0x26, 0x9a, 0x63, 0xbf, 
0x92, 0x98, 0x0d, 0x3e, 0x93, 0x80, 0xbe, 0x3e, 0x33, 0x97, 0x08, 0x3f, 
0x1c, 0x59, 0x93, 0x3d, 0x62, 0x22, 0x78, 0x3f, 0x48, 0x9c, 0x8c, 0x3f, 
0xe7, 0x4c, 0xf4, 0x3e, 0x95, 0x2c, 0x1d, 0x3f, 0xc8, 0xa8, 0xad, 0xbf, 
0x24, 0x70, 0x8c, 0xbe, 0xad, 0xe5, 0xdf, 0xbd, 0xef, 0xd7, 0x80, 0x3e, 
0x12, 0x2f, 0x3f, 0x3d, 0x3d, 0xc9, 0x6f, 0x3e, 0xe9, 0x1a, 0x0e, 0xbf, 
0x9e, 0x37, 0xf4, 0xbe, 0xba, 0xfc, 0x49, 0x3e, 0xef, 0xbd, 0xb2, 0xbd, 
0x2b, 0x85, 0x5f, 0x3e, 0x8f, 0x09, 0x94, 0x3d, 0x0a, 0x8a, 0x45, 0xbf, 
0x53, 0x4e, 0x3e, 0x3f, 0x2e, 0x73, 0xbc, 0x3e, 0x98, 0xd2, 0x1c, 0x3d, 
0x43, 0x87, 0xc2, 0x3e, 0x55, 0xe6, 0x6b, 0x3c, 0x8d, 0x81, 0x9f, 0xbe, 
0x7d, 0xac, 0xc1, 0x3d, 0x72, 0xdc, 0xed, 0x3e, 0x66, 0x6c, 0x5a, 0xbf, 
0xb2, 0xa5, 0xe1, 0xbe, 0x70, 0xa6, 0x11, 0x3f, 0x9b, 0x58, 0x7d, 0xbe, 
0xb7, 0x4d, 0x96, 0xbe, 0xe8, 0xe4, 0x7a, 0xbf, 0xf1, 0xdb, 0xe4, 0xbd, 
0x37, 0x0a, 0x9c, 0xbf, 0xe0, 0x95, 0x18, 0xbf, 0xa9, 0xb9, 0x3b, 0x3f, 
0x90, 0xce, 0x1d, 0xbe, 0xf6, 0xf2, 0x8f, 0x3d, 0xac, 0xe9, 0xfa, 0xbd, 
0xee, 0x1e, 0x30, 0xbd, 0x34, 0xb6, 0x41, 0x3e, 0x2d, 0x4f, 0x2c, 0xbe, 
0x33, 0x16, 0xf7, 0x3b, 0xf6, 0x55, 0x9e, 0x3e, 0x4b, 0x91, 0x1f, 0x3e, 
0x8b, 0xb2, 0x8f, 0xbe, 0x95, 0xd3, 0x27, 0xbf, 0xca, 0x1a, 0x20, 0xbf, 
0x14, 0xb7, 0x53, 0xbf, 0xca, 0x22, 0xca, 0x3e, 0x0a, 0x99, 0x14, 0x3e, 
0x5c, 0x44, 0x2f, 0xbe, 0xdd, 0x43, 0x00, 0x3f, 0x77, 0x90, 0x99, 0x3d, 
0x5f, 0x5c, 0x01, 0x3f, 0x1d, 0x4b, 0xbf, 0x3d, 0xed, 0x59, 0x59, 0xbf, 
0x5b, 0xe8, 0xf6, 0xbd, 0xbc, 0xd1, 0xb2, 0x3e, 0xbf, 0x70, 0x26, 0x3d, 
0x5c, 0xe5, 0x8e, 0xbe, 0x77, 0xc0, 0xfd, 0xbe, 0xf6, 0xf3, 0x9d, 0x3e, 
0xdb, 0xc5, 0x39, 0x3f, 0x4a, 0x2f, 0xf5, 0xbc, 0xf7, 0xa2, 0x2b, 0xbf, 
0x62, 0xa8, 0x24, 0xbe, 0x4f, 0x0a, 0x33, 0xbf, 0x79, 0x2b, 0x7d, 0xbe, 
0xb8, 0x1b, 0xb9, 0x3e, 0xc8, 0x94, 0xd8, 0x3d, 0x17, 0x1c, 0xe5, 0x3d, 
0x27, 0xd0, 0xa0, 0x3e, 0x56, 0xbd, 0xac, 0x3e, 0xf7, 0x5c, 0xa3, 0xbe, 
0xe5, 0xb3, 0xfc, 0x3e, 0x6c, 0x92, 0xa8, 0x3e, 0xf1, 0xec, 0x20, 0xbf, 
0xee, 0x28, 0x6c, 0x3e, 0xed, 0x0e, 0xaf, 0x3e, 0x11, 0xed, 0xd5, 0xbe, 
0xe2, 0x9b, 0xfc, 0x3e, 0x8e, 0xc7, 0x87, 0xbe, 0x28, 0xe9, 0x13, 0xbe, 
0x82, 0x19, 0x0b, 0x3e, 0x29, 0x2d, 0xf0, 0x3e, 0x8d, 0x55, 0x1b, 0x3f, 
0x80, 0xcc, 0x8a, 0x3e, 0x28, 0x32, 0x36, 0xbe, 0xcc, 0x71, 0x81, 0xbf, 
0x42, 0x7f, 0x96, 0x3f, 0xb8, 0x4b, 0x7a, 0xbe, 0xfb, 0x4c, 0xfc, 0x3e, 
0x1c, 0x29, 0xe6, 0x3e, 0xcf, 0x5a, 0x1d, 0xbf, 0xc0, 0xed, 0xf0, 0xbe, 
0xb6, 0x77, 0xa9, 0x3d, 0x54, 0x1c, 0x44, 0xbe, 0x98, 0x78, 0x40, 0xbe, 
0x3b, 0x8c, 0x15, 0x3f, 0x99, 0xc8, 0x62, 0xbf, 0x24, 0x38, 0x87, 0x3d, 
0x14, 0x95, 0x43, 0x3f, 0x6d, 0x06, 0x6a, 0xbe, 0x06, 0xaf, 0x92, 0xbe, 
0xf4, 0x6c, 0x0b, 0xbe, 0xa8, 0x68, 0x5f, 0x3f, 0xd8, 0x65, 0x8d, 0x3f, 
0x80, 0x50, 0xb9, 0x3d, 0x8f, 0x16, 0x0e, 0x3f, 0x99, 0x6a, 0x1a, 0xbe, 
0xb2, 0xa9, 0xd5, 0x3d, 0x1c, 0xcb, 0xad, 0xbe, 0x63, 0x58, 0xb0, 0x3e, 
0x7c, 0x49, 0x31, 0x3e, 0xe1, 0xfd, 0x3d, 0x3f, 0x18, 0x9a, 0x13, 0x3f, 
0x0f, 0x5f, 0x94, 0x3f, 0x75, 0x25, 0x80, 0x3e, 0x89, 0x56, 0x91, 0xbe, 
0x2f, 0xdd, 0x5e, 0xbf, 0xff, 0x65, 0x6d, 0x3f, 0x3e, 0xc7, 0x63, 0xbf, 
0x02, 0x38, 0xd4, 0x3e, 0x97, 0x03, 0x53, 0xbe, 0xc1, 0x2a, 0xa1, 0xbe, 
0x4a, 0xa4, 0x7d, 0xbe, 0xa6, 0xfd, 0x9c, 0x3d, 0xe1, 0xf4, 0x95, 0x3f, 
0xe5, 0xc7, 0x80, 0xbe, 0xf2, 0x13, 0x21, 0x3f, 0xcf, 0x32, 0xef, 0x3e, 
0xe2, 0x85, 0xf8, 0xbd, 0x03, 0x42, 0x0e, 0x3e, 0xb0, 0x14, 0x82, 0x3f, 
0xff, 0xe3, 0x7c, 0x3e, 0xbb, 0x01, 0x8d, 0xbe, 0x22, 0xc3, 0x5a, 0x3e, 
0x69, 0xd9, 0x4c, 0x3e, 0x07, 0x15, 0x3c, 0x3e, 0x5d, 0xba, 0x17, 0x3f, 
0x5b, 0xe4, 0x15, 0x3e, 0x27, 0xbb, 0x7c, 0x3f, 0x50, 0x46, 0xe6, 0x3e, 
0xba, 0x69, 0x53, 0x3f, 0xdb, 0xc3, 0xe0, 0xbe, 0xfa, 0x8a, 0x3d, 0x3f, 
0x4d, 0x45, 0x05, 0x3f, 0x96, 0xe1, 0xb1, 0x3c, 0xc9, 0x4d, 0x94, 0x3f, 
0x4e, 0xdb, 0x8d, 0x3e, 0xb4, 0x49, 0x6a, 0xbf, 0xe8, 0xf0, 0xb1, 0xbe, 
0xc6, 0x0a, 0x67, 0x3e, 0xb6, 0xe6, 0xd1, 0x3d, 0xf0, 0x10, 0x3a, 0x3f, 
0x87, 0xdb, 0x9a, 0x3f, 0x50, 0x96, 0xba, 0xbe, 0xe8, 0x35, 0x47, 0x3e, 
0xde, 0xbc, 0xf6, 0x3c, 0xbc, 0x9a, 0x2c, 0x3e, 0x52, 0x3e, 0x0a, 0xbf, 
0x5d, 0x44, 0x4f, 0xbf, 0x3e, 0xc4, 0x54, 0x3f, 0xa3, 0xa1, 0xb3, 0xbe, 
0x1b, 0x2e, 0x4f, 0x3e, 0x8e, 0xe2, 0xbb, 0x3e, 0x98, 0x72, 0x59, 0xbd, 
0x97, 0x53, 0x40, 0x3d, 0x84, 0x63, 0x9a, 0x3f, 0xc8, 0x4f, 0x32, 0x3e, 
0xcf, 0x0a, 0x8b, 0x3e, 0xc4, 0xab, 0x8c, 0x3e, 0x55, 0x67, 0xb6, 0x3d, 
0xa9, 0xdd, 0xc9, 0xbe, 0x0d, 0x7c, 0x7a, 0x3d, 0x10, 0xa6, 0xc8, 0xbd, 
0x72, 0x85, 0xe4, 0x3e, 0xa7, 0x33, 0x92, 0xbe, 0xa0, 0x5d, 0x66, 0x3e, 
0x01, 0x0a, 0x93, 0x3e, 0x02, 0x11, 0x8a, 0x3d, 0xa9, 0xc6, 0x0d, 0x3f, 
0xd7, 0xeb, 0xcd, 0xbd, 0x1c, 0x75, 0xfd, 0x3c, 0xb7, 0x3a, 0xc6, 0x3d, 
0x05, 0x9c, 0xe3, 0x3b, 0x89, 0xaf, 0xa5, 0x3e, 0xa8, 0xf5, 0x86, 0xba, 
0xc7, 0x9b, 0xe4, 0x3e, 0x4a, 0x5e, 0x9c, 0x3f, 0x7b, 0x60, 0x03, 0xbd, 
0xfe, 0x03, 0x17, 0x3f, 0x51, 0xb4, 0x87, 0xbe, 0x55, 0x4d, 0x5b, 0x3e, 
0x9f, 0x79, 0x16, 0x3e, 0x58, 0x34, 0xb9, 0xbe, 0x53, 0xe1, 0x56, 0x3e, 
0xcc, 0x7d, 0x6a, 0xbe, 0x17, 0x7c, 0xb1, 0x3d, 0xfe, 0x2f, 0x58, 0xbe, 
0x72, 0x87, 0x21, 0x3f, 0x60, 0x5c, 0x9e, 0xbe, 0xdb, 0x73, 0x9f, 0x3f, 
0x22, 0xd6, 0x85, 0x3f, 0xdd, 0x4c, 0x0b, 0xbc, 0x53, 0xf6, 0xa8, 0xbd, 
0xbe, 0xfe, 0x9b, 0x3e, 0xb5, 0x01, 0x58, 0x3f, 0x8b, 0x19, 0xf6, 0x3e, 
0xef, 0xd4, 0x3b, 0xbf, 0x40, 0x9f, 0x59, 0xbf, 0x90, 0x4a, 0x0f, 0xbf, 
0x1b, 0xdd, 0xa3, 0xbe, 0xd3, 0xe4, 0xa1, 0xbd, 0x47, 0xce, 0x47, 0x3e, 
0x19, 0x25, 0x53, 0x3e, 0x34, 0xbc, 0xf8, 0xbc, 0x79, 0x9b, 0xc2, 0xbd, 
0x9b, 0xc7, 0xdd, 0x3e, 0xa2, 0x2d, 0x91, 0xbd, 0xed, 0x46, 0x48, 0x3f, 
0x03, 0x8c, 0x96, 0x3c, 0x04, 0xc6, 0x31, 0x3e, 0x70, 0xd5, 0x2a, 0xbf, 
0x73, 0x6a, 0xc9, 0xbe, 0xca, 0x4f, 0xa0, 0xbf, 0x2c, 0x99, 0xd1, 0x3d, 
0x8b, 0x8d, 0x01, 0xbc, 0x51, 0x55, 0xf1, 0x3e, 0x4c, 0x64, 0xab, 0x3d, 
0x19, 0x99, 0xd1, 0xbe, 0x02, 0x28, 0x5b, 0x3d, 0x1a, 0xf7, 0x80, 0xbd, 
0xee, 0x86, 0x4a, 0xbe, 0x13, 0xbb, 0xda, 0xbd, 0x5b, 0xa9, 0x42, 0xbe, 
0x20, 0xf0, 0x4b, 0x3c, 0x37, 0x97, 0xdc, 0xbd, 0xf5, 0xd6, 0x93, 0x3e, 
0x22, 0x56, 0x98, 0xbc, 0x28, 0x23, 0x18, 0x3d, 0xc0, 0xf7, 0x58, 0x3e, 
0x23, 0xf1, 0xe3, 0xbd, 0x8f, 0xdd, 0x50, 0xbd, 0xe2, 0x19, 0x00, 0x3d, 
0x27, 0x70, 0x05, 0x3f, 0xee, 0xfa, 0x82, 0x3d, 0x42, 0xac, 0x27, 0xbd, 
0xf4, 0x58, 0x20, 0xbe, 0x99, 0x06, 0xc5, 0x3b, 0xf3, 0xa8, 0x68, 0xbe, 
0xa1, 0xd2, 0x9d, 0x3e, 0xfa, 0x68, 0x61, 0x3e, 0xa7, 0xe2, 0x2c, 0x3e, 
0xa3, 0xb2, 0xac, 0x3e, 0x6f, 0x3e, 0x68, 0xbe, 0xb4, 0xc9, 0xbc, 0x3e, 
0xd1, 0xe6, 0x22, 0x3f, 0x26, 0x2e, 0xa3, 0x3c, 0xd6, 0x76, 0x0c, 0xbe, 
0xec, 0x7e, 0x9a, 0x3e, 0x51, 0x66, 0xed, 0xbe, 0x03, 0xbc, 0xa4, 0xbc, 
0xd1, 0x69, 0x53, 0x3e, 0x6f, 0xe8, 0x41, 0xbd, 0xa7, 0x4a, 0x87, 0x3e, 
0x9c, 0x97, 0x5e, 0xbe, 0xb0, 0x4b, 0xd8, 0xbe, 0x60, 0xb4, 0xa6, 0x3e, 
0xd8, 0xc9, 0x8b, 0x3e, 0xe2, 0x11, 0xec, 0xbd, 0x3c, 0x59, 0x0e, 0xbf, 
0x6a, 0x1f, 0xee, 0x3c, 0x1a, 0x0e, 0x8a, 0xbe, 0x11, 0x23, 0x09, 0x3e, 
0x1c, 0xfc, 0x9d, 0x3e, 0xc6, 0x57, 0x6f, 0xbe, 0x62, 0x8f, 0x95, 0xbe, 
0x99, 0x8c, 0xaa, 0x3d, 0x3c, 0x35, 0x9e, 0xbd, 0x49, 0x51, 0x6b, 0xbe, 
0xa2, 0xa9, 0x30, 0x3e, 0x9c, 0x42, 0xef, 0x3c, 0x9e, 0x1d, 0x0b, 0x3e, 
0xeb, 0x21, 0x53, 0x3e, 0xa0, 0xa0, 0xae, 0xbe, 0x45, 0x9d, 0x59, 0x3e, 
0x88, 0x50, 0xc5, 0xbd, 0x7d, 0x64, 0x24, 0xbe, 0x84, 0x68, 0x8e, 0xbc, 
0x08, 0xef, 0x09, 0xbe, 0x83, 0xc3, 0xb3, 0xbe, 0xea, 0xc1, 0x77, 0xbe, 
0x57, 0x5c, 0x82, 0xbe, 0xc5, 0xf0, 0x26, 0x3e, 0x5b, 0xee, 0x77, 0xbe, 
0x2f, 0x36, 0xbd, 0xbe, 0xe9, 0x21, 0x8e, 0x3e, 0xeb, 0xa1, 0x93, 0x3d, 
0xb6, 0x1c, 0x3c, 0x3e, 0x9f, 0xc7, 0xd7, 0x3c, 0xca, 0x54, 0x45, 0xbe, 
0xd4, 0x35, 0x22, 0x3e, 0xb7, 0x6d, 0x8f, 0x3e, 0x42, 0x1f, 0x37, 0x3e, 
0xbe, 0xa3, 0x92, 0xbe, 0x0d, 0x12, 0x08, 0x3e, 0x7c, 0x66, 0x88, 0xbd, 
0x75, 0x8a, 0x8e, 0xbe, 0x74, 0x83, 0xa8, 0x3c, 0x54, 0x47, 0xcc, 0xbd, 
0x54, 0x40, 0xb1, 0xbd, 0x52, 0x2b, 0xc6, 0xbd, 0xf3, 0x61, 0x05, 0xbe, 
0x53, 0x5b, 0x0b, 0x3e, 0xac, 0x9b, 0x3a, 0x3d, 0xf1, 0x3d, 0xb3, 0x3e, 
0x57, 0xe7, 0xbb, 0x3d, 0x5d, 0xe1, 0xcb, 0x3e, 0x78, 0xad, 0x32, 0xbf, 
0x9e, 0x9c, 0xdc, 0x3e, 0x83, 0x2e, 0xf6, 0x3e, 0x15, 0xe3, 0xf4, 0xbb, 
0x7f, 0xbf, 0x87, 0x3d, 0x90, 0xb4, 0xed, 0x3c, 0x95, 0x73, 0x96, 0xbe, 
0x9d, 0x47, 0x15, 0x3f, 0xc3, 0x6c, 0x02, 0x3e, 0x60, 0x58, 0xc1, 0xbe, 
0x24, 0xda, 0x33, 0xbe, 0x77, 0xcd, 0x27, 0x3e, 0x61, 0x03, 0xdd, 0xbe, 
0xf3, 0x7b, 0x57, 0x3e, 0xe1, 0x56, 0xce, 0x3e, 0xa1, 0x88, 0x02, 0x3f, 
0xee, 0xc8, 0xcf, 0xbd, 0x28, 0x8d, 0x9d, 0x3c, 0x12, 0x34, 0xba, 0x3b, 
0x77, 0xe6, 0x57, 0x3e, 0xf9, 0x75, 0xd5, 0x3d, 0x81, 0xb6, 0x07, 0x3f, 
0xc0, 0x82, 0x71, 0x3e, 0xd8, 0x88, 0xb2, 0xbe, 0xf8, 0xae, 0x23, 0x3e, 
0x9b, 0x97, 0x17, 0x3c, 0xe3, 0x47, 0x52, 0x3e, 0x45, 0x9f, 0x91, 0x3e, 
0x6d, 0x91, 0x7f, 0x3e, 0x22, 0x7c, 0x36, 0x3d, 0x6e, 0x4a, 0x04, 0xbe, 
0x52, 0xd0, 0xeb, 0x3e, 0x1b, 0xd8, 0x1d, 0x3f, 0x8a, 0x51, 0xe5, 0xbe, 
0x54, 0xf1, 0x43, 0xbd, 0x8f, 0xa6, 0x34, 0x3f, 0x6d, 0x19, 0x09, 0xbf, 
0x81, 0x21, 0x74, 0x3c, 0xb5, 0x0b, 0x63, 0x3e, 0xf6, 0xc5, 0x80, 0xbe, 
0x30, 0xd1, 0xd7, 0x3e, 0xe5, 0x9d, 0xe1, 0xbd, 0xa6, 0x8b, 0xe6, 0x3d, 
0x6e, 0x1a, 0x70, 0xbd, 0x1f, 0x57, 0xd2, 0x3e, 0x72, 0xdc, 0x61, 0x3e, 
0x86, 0xdc, 0x5e, 0xbe, 0x9a, 0x5f, 0xac, 0x3e, 0xe0, 0xbd, 0xe4, 0x3e, 
0xaa, 0x18, 0xe3, 0xbc, 0x8c, 0xf3, 0x24, 0x3f, 0xaa, 0xef, 0xad, 0x3e, 
0x6a, 0x5a, 0xa9, 0xbd, 0x69, 0x99, 0x92, 0xbe, 0x78, 0x46, 0x81, 0xbe, 
0xa1, 0x70, 0xb0, 0x3e, 0x7b, 0x73, 0xcf, 0x3d, 0xa3, 0x0d, 0xd5, 0x3c, 
0x70, 0x4d, 0xf0, 0xbd, 0x82, 0x37, 0x4c, 0x3e, 0x58, 0xc1, 0x5f, 0x3e, 
0x0e, 0xd9, 0x08, 0x3e, 0x1c, 0x81, 0x36, 0xbe, 0x10, 0x38, 0xe6, 0xbe, 
0x98, 0x17, 0xd0, 0x3d, 0xb0, 0x54, 0xd6, 0x3c, 0x85, 0x9a, 0xc1, 0xbe, 
0x11, 0x10, 0xc7, 0xbe, 0x28, 0x80, 0x0f, 0x3f, 0x93, 0xcb, 0x6d, 0x3e, 
0x97, 0x13, 0xeb, 0xbe, 0x1a, 0xbb, 0x8f, 0x3d, 0x23, 0xd3, 0x8f, 0x3e, 
0xa1, 0xa0, 0xcb, 0x3d, 0x44, 0xf9, 0xb0, 0x3e, 0xac, 0x6a, 0x51, 0xbe, 
0xe4, 0x02, 0xab, 0x3e, 0x06, 0xd0, 0xd5, 0xbc, 0xca, 0xde, 0x1c, 0x3e, 
0xc2, 0xfb, 0xfb, 0xbe, 0x82, 0x3f, 0x12, 0xbf, 0x11, 0x39, 0xb0, 0xbe, 
0x7e, 0x2c, 0x13, 0xbd, 0x1d, 0x69, 0x8b, 0xbe, 0xca, 0x7e, 0x17, 0x3f, 
0xb8, 0xe9, 0x24, 0xbf, 0x59, 0x83, 0x1b, 0xbb, 0x29, 0x6e, 0xc7, 0xbd, 
0x95, 0x29, 0x19, 0xbe, 0x6a, 0x84, 0x57, 0x3e, 0x63, 0xe4, 0x60, 0x3e, 
0x08, 0x18, 0x05, 0x3e, 0xc2, 0x53, 0x7b, 0x3d, 0x08, 0x5d, 0xe3, 0x3e, 
0x7a, 0x7c, 0x97, 0xbe, 0x35, 0xef, 0x34, 0x3e, 0xdf, 0xde, 0xd1, 0xbe, 
0x4c, 0x4f, 0x06, 0x3e, 0xe1, 0xf5, 0x7d, 0x3d, 0x09, 0x69, 0xb6, 0x3e, 
0x1f, 0x24, 0x0f, 0x3e, 0x65, 0xbc, 0x20, 0x3e, 0x8f, 0x87, 0x84, 0xbe, 
0x37, 0xfb, 0x94, 0x3d, 0x8b, 0x90, 0xb5, 0x3e, 0x7f, 0xea, 0x0b, 0xbe, 
0x3f, 0x19, 0x0e, 0xbe, 0xeb, 0xbe, 0xfd, 0x3e, 0x74, 0x00, 0x4b, 0xbd, 
0x4b, 0x98, 0x45, 0x3e, 0x40, 0x4f, 0xf8, 0x3c, 0x12, 0x18, 0xfc, 0x3d, 
0x77, 0xc4, 0xfc, 0xbe, 0xf4, 0xf5, 0x89, 0xbe, 0x9f, 0xc7, 0x4a, 0xbe, 
0x30, 0xef, 0x8e, 0xbe, 0x66, 0xe7, 0xae, 0xbe, 0x73, 0x12, 0x77, 0x3d, 
0x33, 0x33, 0xc0, 0xbe, 0xee, 0x5d, 0x0d, 0x3d, 0x32, 0xc0, 0x7c, 0x3e, 
0x78, 0xfa, 0x9c, 0x3e, 0x32, 0x25, 0xd9, 0xbd, 0x36, 0x6d, 0x59, 0x3e, 
0x0a, 0x8c, 0x1d, 0x3f, 0x4d, 0xd5, 0x3d, 0x3f, 0x41, 0x0e, 0x2c, 0xbe, 
0x28, 0xd0, 0xbe, 0xbe, 0x8d, 0x2c, 0x4c, 0xbe, 0xd9, 0x72, 0xce, 0x3d, 
0x0e, 0xcb, 0xa3, 0xbe, 0x59, 0x44, 0x1c, 0x3f, 0xbf, 0x0c, 0x45, 0x3e, 
0xd0, 0xa4, 0x1f, 0x3f, 0xc9, 0x97, 0xce, 0xbe, 0x9a, 0x84, 0xf7, 0x3e, 
0xab, 0x41, 0xe6, 0xbe, 0xc2, 0xa3, 0x64, 0xbf, 0x54, 0x05, 0x8d, 0x3d, 
0xa3, 0x01, 0xa3, 0x3e, 0xfa, 0x82, 0x13, 0xba, 0x6f, 0xa4, 0x9d, 0xbe, 
0x5f, 0xff, 0x28, 0x3e, 0x1c, 0x70, 0xf1, 0xbe, 0x33, 0x77, 0x14, 0x3f, 
0x29, 0x05, 0x71, 0xbe, 0xeb, 0xc6, 0xf7, 0x3e, 0x95, 0xbf, 0x10, 0x3f, 
0xd9, 0x85, 0x8a, 0x3e, 0x01, 0xcc, 0x96, 0x3e, 0xcf, 0xdb, 0x2d, 0x3e, 
0xf9, 0xaa, 0xdb, 0x3d, 0x67, 0x52, 0x9a, 0x3e, 0x41, 0x58, 0xc2, 0x3e, 
0x66, 0xa3, 0x38, 0x3d, 0xa0, 0x14, 0xfa, 0x3d, 0xf8, 0x50, 0xf8, 0x3d, 
0x59, 0x92, 0x64, 0x3d, 0x64, 0xde, 0xb6, 0xbe, 0x62, 0xa8, 0x09, 0xbe, 
0x3e, 0x6f, 0xd4, 0xbd, 0x20, 0x30, 0x2d, 0x3f, 0xc7, 0x4b, 0x7f, 0x3e, 
0xf9, 0xb0, 0xb0, 0x3b, 0x27, 0x08, 0xb1, 0x3d, 0x92, 0xfc, 0x66, 0x3e, 
0x57, 0xed, 0xd3, 0x3c, 0xda, 0xce, 0x8d, 0xbd, 0x30, 0x8f, 0x22, 0xbe, 
0x4a, 0x07, 0xb7, 0x3d, 0xed, 0xb0, 0xa8, 0xbf, 0x68, 0x06, 0x84, 0x3d, 
0xf9, 0x42, 0x8a, 0x3f, 0x5b, 0x2a, 0xcb, 0x3e, 0xf5, 0xd4, 0xda, 0xbe, 
0x04, 0x75, 0x9a, 0xbe, 0x03, 0x0c, 0x8e, 0x3d, 0x06, 0x7d, 0xce, 0xbd, 
0xbe, 0x21, 0x7a, 0xbe, 0x47, 0xa0, 0x26, 0xbd, 0x81, 0x3a, 0xc3, 0x3d, 
0x39, 0x24, 0xf7, 0x3d, 0x40, 0x33, 0x2e, 0x3e, 0xa2, 0x75, 0x1d, 0xbe, 
0xb5, 0x32, 0x95, 0xbe, 0xac, 0xb1, 0x51, 0xbe, 0xd4, 0x42, 0x29, 0xbe, 
0xc1, 0x6d, 0x08, 0x3e, 0x9a, 0x6b, 0x0e, 0xbd, 0xe4, 0x04, 0x30, 0xbf, 
0x95, 0x84, 0xcb, 0xbe, 0xbf, 0xf8, 0xa4, 0x3e, 0xc5, 0x41, 0xf7, 0x3d, 
0xc6, 0x1e, 0xbc, 0x3e, 0x44, 0x1a, 0x0c, 0xbe, 0x9b, 0xcb, 0x33, 0xbf, 
0xdb, 0xda, 0x06, 0xbf, 0xb3, 0x73, 0x96, 0xbc, 0x1a, 0xe9, 0xa9, 0x3e, 
0x27, 0x0a, 0x4a, 0x3e, 0xd9, 0x88, 0x6e, 0x3d, 0x41, 0x09, 0x15, 0x3e, 
0x44, 0x2d, 0x5a, 0x3f, 0xe1, 0x50, 0xb4, 0xbe, 0x42, 0x73, 0xaf, 0xbe, 
0xc0, 0xbe, 0x3d, 0x3e, 0x3d, 0xfe, 0x9a, 0xbe, 0x11, 0xb0, 0x83, 0x3e, 
0xaa, 0x5a, 0x3e, 0xbf, 0x31, 0x0e, 0x23, 0x3e, 0x12, 0x8d, 0x1b, 0xbf, 
0xad, 0x73, 0x02, 0xbf, 0x86, 0xd9, 0x7f, 0x3f, 0x8e, 0x53, 0x96, 0xbf, 
0x93, 0xae, 0x88, 0xbe, 0xbb, 0x04, 0xb4, 0x3c, 0x89, 0x00, 0x31, 0x3e, 
0x25, 0xed, 0x8c, 0x3e, 0x06, 0x4f, 0xca, 0x3e, 0x7b, 0x5e, 0x08, 0xbf, 
0x65, 0xb8, 0x37, 0xbf, 0x3d, 0x22, 0x2b, 0xbc, 0x96, 0x98, 0x8c, 0x3e, 
0x5d, 0x38, 0x0b, 0xbf, 0x6b, 0x36, 0xcf, 0x3d, 0xde, 0xf7, 0x05, 0xbe, 
0x03, 0x1f, 0xa4, 0x3e, 0x73, 0x69, 0x4b, 0xbd, 0x2f, 0x0a, 0xe8, 0x3c, 
0xc4, 0x33, 0x12, 0xbf, 0x11, 0x56, 0xea, 0x3d, 0xb4, 0x37, 0xe2, 0xbe, 
0x0e, 0xd7, 0x69, 0xbf, 0x31, 0xe4, 0xde, 0xbd, 0x43, 0xee, 0x11, 0xbf, 
0xde, 0x5e, 0x0f, 0xbe, 0xd5, 0x62, 0x4e, 0x3e, 0x0d, 0x68, 0x3e, 0x3f, 
0x40, 0xac, 0x46, 0x3e, 0x20, 0x83, 0x43, 0xbf, 0x7f, 0x8c, 0x92, 0xbe, 
0x5c, 0x1d, 0xa0, 0xbd, 0x16, 0xb2, 0xb0, 0xbe, 0x8e, 0xaf, 0x89, 0x3d, 
0x1f, 0x7a, 0x08, 0xbf, 0x25, 0xfd, 0x95, 0x3c, 0x4b, 0x6d, 0xa1, 0xbe, 
0x89, 0xef, 0x0a, 0xbe, 0x6c, 0x49, 0x92, 0xbe, 0xb7, 0x40, 0x6d, 0xbe, 
0x7d, 0xb6, 0x02, 0xbf, 0xdb, 0x6d, 0x6c, 0x3d, 0x48, 0xa4, 0x81, 0xbd, 
0x2c, 0xc7, 0xaf, 0x3d, 0x2b, 0x4a, 0x4e, 0xbd, 0xd2, 0x14, 0x50, 0xbe, 
0xd5, 0xcb, 0xfe, 0x3c, 0x5c, 0x72, 0x7b, 0x3d, 0x11, 0x1f, 0x05, 0xbe, 
0xce, 0xc2, 0x48, 0xbf, 0xc2, 0x4e, 0x92, 0xbe, 0xb0, 0x78, 0x37, 0x3d, 
0x07, 0x46, 0x22, 0xbf, 0xd9, 0xc9, 0x16, 0x3d, 0x4a, 0xfe, 0x75, 0xbe, 
0xf9, 0xc7, 0x75, 0x3c, 0x10, 0xd2, 0x0f, 0xbe, 0xab, 0xc0, 0xa8, 0xbe, 
0xc5, 0xbb, 0x52, 0xbd, 0x0b, 0x80, 0x67, 0xbe, 0x7d, 0xd3, 0x8e, 0x3f, 
0x24, 0xbf, 0x8e, 0xbe, 0x88, 0x65, 0xb6, 0xbe, 0xf1, 0x24, 0xbb, 0xbd, 
0x1b, 0x59, 0x31, 0xbe, 0xc8, 0xb3, 0x2e, 0xbe, 0x25, 0x25, 0x7c, 0xbf, 
0x7b, 0x7e, 0x86, 0x3e, 0x2f, 0x20, 0x9c, 0xbe, 0xb3, 0x54, 0x04, 0xbf, 
0xa0, 0x5a, 0x2d, 0xbe, 0x62, 0x49, 0x30, 0x3f, 0x53, 0x47, 0x1c, 0x3e, 
0x12, 0xa3, 0xbd, 0xbe, 0x79, 0x1d, 0x88, 0xbe, 0x8a, 0xaa, 0x38, 0x3f, 
0xec, 0x74, 0xe4, 0x3e, 0xb3, 0xcf, 0xa3, 0x3f, 0x94, 0x23, 0x87, 0x3d, 
0xd0, 0x48, 0x51, 0xbb, 0xe2, 0x81, 0x09, 0xbf, 0xef, 0xc4, 0xc3, 0x3d, 
0xb5, 0xd5, 0xde, 0xbe, 0x54, 0x00, 0x8e, 0xbc, 0x7d, 0x42, 0xdb, 0x3e, 
0x28, 0x20, 0x48, 0xbf, 0xb6, 0x2d, 0xad, 0xbc, 0x31, 0xb6, 0x1f, 0xbd, 
0x19, 0xb1, 0xe6, 0x3e, 0x57, 0x46, 0x66, 0xbe, 0x17, 0x6f, 0x27, 0xbc, 
0xdd, 0xa8, 0xc3, 0xbc, 0x03, 0x0f, 0x43, 0x3f, 0xf4, 0x32, 0x24, 0xbe, 
0xc8, 0x7d, 0x0c, 0x3f, 0xd0, 0x38, 0x11, 0xbe, 0xfc, 0xa8, 0xde, 0x3e, 
0xe0, 0xb0, 0x96, 0xbe, 0x1f, 0x0e, 0x31, 0xbf, 0xc6, 0xb0, 0x67, 0x3d, 
0x2b, 0x41, 0x90, 0xbd, 0x23, 0x9f, 0x81, 0x3f, 0x01, 0xeb, 0x35, 0x3f, 
0x87, 0xee, 0x0a, 0xbf, 0x2f, 0x93, 0x76, 0xbe, 0x18, 0x00, 0x36, 0xbe, 
0x89, 0x8a, 0xa5, 0x3e, 0x77, 0xd1, 0xdc, 0x3e, 0xd9, 0xa6, 0x11, 0x3f, 
0x86, 0x05, 0x66, 0xbd, 0xbf, 0x5e, 0x23, 0xbe, 0xd4, 0x29, 0xae, 0x3e, 
0x51, 0xb4, 0xd6, 0x3e, 0x74, 0x57, 0xc0, 0x3e, 0x21, 0xc5, 0xbd, 0x3e, 
0xcd, 0x69, 0x1b, 0xbf, 0xfa, 0x7d, 0xa4, 0xbe, 0x01, 0x90, 0x22, 0xbe, 
0xcf, 0x7c, 0xa7, 0x3e, 0x37, 0x7e, 0x74, 0x3e, 0xe2, 0xb3, 0x9c, 0xbe, 
0x21, 0xfe, 0xee, 0x3e, 0xba, 0x7b, 0xb0, 0x3d, 0x66, 0x8c, 0x17, 0xbd, 
0x88, 0x56, 0x9b, 0x3f, 0x94, 0x3d, 0xbc, 0x3e, 0x2b, 0xdf, 0xc3, 0x3d, 
0x61, 0x94, 0x49, 0xbf, 0xf1, 0x8e, 0x71, 0x3e, 0x52, 0x71, 0xd0, 0x3d, 
0xc0, 0x28, 0x88, 0xbe, 0x92, 0xc7, 0x33, 0x3f, 0x76, 0x0f, 0xac, 0x3e, 
0x9e, 0x75, 0xaf, 0x3e, 0x77, 0x58, 0x49, 0x3d, 0x73, 0x1d, 0x27, 0x3e, 
0x5f, 0x2e, 0x28, 0xbf, 0xc5, 0xfa, 0x65, 0xbe, 0xb6, 0x77, 0x85, 0x3e, 
0x7b, 0x30, 0x72, 0xbe, 0x0e, 0xb0, 0x90, 0xbc, 0x18, 0x88, 0x79, 0xbf, 
0x66, 0x1c, 0x89, 0xbb, 0x97, 0xa6, 0x7e, 0xbf, 0x79, 0xb6, 0xe6, 0xbc, 
0xf9, 0x8d, 0x01, 0x3f, 0xb2, 0x55, 0xee, 0xba, 0x07, 0xfe, 0x09, 0x3e, 
0x17, 0x1a, 0x2c, 0xbe, 0xda, 0xb2, 0x1f, 0xbe, 0x2f, 0x7a, 0x09, 0x3f, 
0x23, 0xdb, 0x04, 0xbd, 0x28, 0x08, 0xde, 0xbd, 0xf4, 0x17, 0xcf, 0x3e, 
0x50, 0xae, 0xf6, 0xbd, 0x34, 0xca, 0xbd, 0xbd, 0x6e, 0xd9, 0x91, 0xbe, 
0x16, 0x79, 0x38, 0x3f, 0x3b, 0x00, 0xf6, 0xbe, 0xcf, 0x29, 0x2d, 0x3e, 
0xa7, 0xae, 0xe5, 0x3e, 0xd2, 0x47, 0x67, 0x3e, 0x6d, 0x01, 0xca, 0x3e, 
0x3f, 0x28, 0x70, 0xbc, 0xce, 0x32, 0x81, 0x3e, 0x3f, 0xfd, 0x06, 0xbe, 
0x94, 0x61, 0xe2, 0xbe, 0x41, 0x04, 0x5c, 0x3e, 0x7b, 0x2c, 0x55, 0x3e, 
0x31, 0xda, 0x88, 0x3e, 0xd6, 0x20, 0x93, 0xbe, 0x38, 0x17, 0x7c, 0xbe, 
0xfe, 0x9b, 0x83, 0x3e, 0xb4, 0x31, 0x60, 0x3f, 0xd5, 0x66, 0x5f, 0x3e, 
0x8f, 0x42, 0x38, 0xbf, 0xe7, 0x5e, 0xdd, 0xbe, 0x58, 0x5c, 0x58, 0xbe, 
0x79, 0x5f, 0x12, 0x3e, 0x58, 0xf9, 0xc7, 0x3d, 0xe5, 0x18, 0xe9, 0xbe, 
0x7a, 0x34, 0x22, 0x3e, 0x4b, 0xbd, 0x08, 0x3f, 0xbb, 0xad, 0xde, 0x3d, 
0xe4, 0xc5, 0x81, 0xbe, 0x2c, 0x36, 0x0a, 0x3e, 0x88, 0x19, 0xa2, 0x3d, 
0xf1, 0x5f, 0x09, 0xbe, 0xb4, 0xcf, 0x07, 0x3f, 0x6b, 0x04, 0x39, 0x3e, 
0xce, 0x58, 0x56, 0x3e, 0xed, 0x1a, 0xb1, 0x3e, 0xa8, 0x68, 0xb1, 0xbe, 
0x6a, 0x17, 0xf8, 0x3c, 0x51, 0x96, 0x04, 0x3f, 0x2b, 0x33, 0x8d, 0x3f, 
0x03, 0x22, 0xc7, 0x3d, 0x61, 0x45, 0x89, 0x3e, 0xc3, 0xc9, 0x6f, 0x3e, 
0x32, 0x47, 0x02, 0xbf, 0xd2, 0xc4, 0xd8, 0x3d, 0xc6, 0xe4, 0x5c, 0xbe, 
0xf9, 0xf9, 0x29, 0x3f, 0x5d, 0x8d, 0x29, 0xbd, 0x70, 0xaa, 0xe4, 0xbe, 
0xa4, 0xb7, 0x3e, 0xbf, 0x95, 0x79, 0x09, 0x3e, 0xf5, 0x4e, 0xc1, 0x3e, 
0x57, 0x41, 0x2e, 0x3e, 0x6d, 0x1a, 0xb3, 0x3e, 0x83, 0x3d, 0xa3, 0x3d, 
0x44, 0x62, 0x11, 0xbf, 0x18, 0xb2, 0xcd, 0x3e, 0x6d, 0x63, 0x45, 0x3e, 
0xb5, 0x3a, 0x10, 0x3e, 0xb1, 0xab, 0xb3, 0x3c, 0x2e, 0xad, 0xcf, 0xbe, 
0x5f, 0x21, 0x6b, 0xbe, 0xab, 0x28, 0x95, 0x3f, 0xb8, 0x13, 0x3c, 0x3f, 
0x70, 0x61, 0xf9, 0xbe, 0x67, 0xf3, 0xa5, 0x3d, 0x2a, 0xab, 0x88, 0x3e, 
0x32, 0x4e, 0xb4, 0xbe, 0x13, 0xcb, 0x9c, 0x3e, 0xa5, 0x4b, 0xa6, 0xbe, 
0x83, 0x6d, 0xbd, 0xbe, 0xe0, 0x42, 0x0b, 0x3e, 0xe6, 0x68, 0x85, 0xbf, 
0x4b, 0x4b, 0xc2, 0xbe, 0x4a, 0x54, 0x1f, 0x3f, 0xcb, 0x03, 0x23, 0x3e, 
0xfb, 0xb5, 0x02, 0x3e, 0x74, 0x27, 0x6a, 0xbd, 0x49, 0x26, 0x96, 0xbd, 
0x5a, 0x8f, 0x85, 0x3e, 0xe2, 0x9b, 0xcc, 0x3d, 0xd0, 0x92, 0x60, 0x3f, 
0x85, 0xaa, 0xa6, 0xbe, 0xa8, 0x41, 0xb1, 0xbe, 0x14, 0x4e, 0x86, 0xbe, 
0xce, 0x5f, 0x5d, 0xbe, 0xb9, 0x1b, 0xd7, 0xbe, 0x8a, 0xf9, 0x12, 0xbd, 
0x0c, 0x7d, 0x90, 0xbd, 0x14, 0x10, 0x86, 0xbd, 0x53, 0x90, 0x88, 0x3e, 
0x67, 0x10, 0x84, 0xbc, 0x3b, 0x0c, 0x31, 0xbe, 0x79, 0xa1, 0x9c, 0xbe, 
0x4b, 0x5e, 0x0e, 0x3f, 0x7d, 0x9f, 0x75, 0xbb, 0xdd, 0xbb, 0x57, 0xbe, 
0x2a, 0x48, 0x0b, 0x3f, 0x88, 0x31, 0x18, 0xbf, 0xd1, 0x5d, 0xfb, 0xbd, 
0xde, 0x8e, 0x46, 0x3e, 0xf1, 0x22, 0x37, 0x3e, 0x47, 0xc6, 0x51, 0xbf, 
0xe1, 0x34, 0x3c, 0xbf, 0x2a, 0x25, 0x94, 0x3d, 0xc8, 0x69, 0x95, 0x3d, 
0xf0, 0x42, 0x71, 0x3f, 0xd5, 0x99, 0x0d, 0xbe, 0xf4, 0x03, 0xb4, 0x3d, 
0xbe, 0x11, 0x29, 0xbf, 0xd3, 0x6e, 0x92, 0xbe, 0xf7, 0x19, 0x17, 0xbf, 
0xd6, 0x99, 0x91, 0xbe, 0x01, 0x17, 0x44, 0x3e, 0x31, 0x3d, 0xd9, 0x3d, 
0xe4, 0xd0, 0x37, 0x3d, 0xf7, 0x80, 0x70, 0x3d, 0x6d, 0xb9, 0xd8, 0x3b, 
0x2f, 0xb2, 0x78, 0xbd, 0x65, 0x66, 0x9a, 0x3d, 0xd6, 0x2d, 0x69, 0xbe, 
0x4f, 0x47, 0x31, 0xbe, 0x1d, 0x18, 0xeb, 0xbd, 0x40, 0x80, 0x37, 0xbe, 
0xb9, 0x61, 0xa0, 0xbe, 0xf7, 0x3d, 0x2e, 0x3e, 0xff, 0xfc, 0x9f, 0xbe, 
0xd1, 0xef, 0x4f, 0x3f, 0x87, 0xc4, 0x2b, 0xbe, 0xc1, 0x47, 0xe9, 0x3e, 
0xce, 0xd4, 0xd4, 0x3e, 0xb8, 0x91, 0x7d, 0xbe, 0x7f, 0x62, 0xab, 0x3e, 
0xe6, 0xd2, 0x44, 0x3d, 0xf0, 0x29, 0xf6, 0x3c, 0x91, 0xaa, 0xc3, 0xbd, 
0x37, 0xfc, 0x57, 0xbe, 0x03, 0x45, 0x83, 0xbe, 0xfc, 0x5b, 0xd8, 0x3e, 
0x94, 0x19, 0x16, 0xbe, 0x32, 0x8d, 0xa3, 0xbd, 0x4a, 0x88, 0xf4, 0xbd, 
0x9b, 0xf8, 0x8f, 0xbe, 0x19, 0x60, 0xf9, 0xbe, 0x8d, 0x36, 0x6e, 0xbe, 
0x67, 0x24, 0x88, 0xbe, 0xe1, 0xdb, 0xbc, 0xbd, 0xdc, 0x83, 0xb3, 0xbe, 
0x18, 0x30, 0x1a, 0xbf, 0x39, 0x6f, 0x35, 0x3e, 0xad, 0x0b, 0x13, 0xbf, 
0x1f, 0x34, 0xfa, 0xbe, 0x40, 0x18, 0xb6, 0x3d, 0xb1, 0x11, 0x53, 0x3e, 
0x02, 0xbc, 0xa0, 0x3e, 0xd3, 0x0c, 0xb5, 0xbd, 0xc7, 0xbf, 0xab, 0xbd, 
0x6a, 0x1b, 0x26, 0xbe, 0x3b, 0x86, 0xee, 0xbe, 0xbf, 0xeb, 0x7c, 0x3e, 
0xaf, 0xcb, 0xb0, 0xbd, 0xf5, 0x21, 0xca, 0xbe, 0x62, 0x12, 0x02, 0xbd, 
0x52, 0x28, 0x84, 0xbc, 0x6d, 0x0a, 0x1d, 0x3e, 0x22, 0x5d, 0x91, 0x3e, 
0x52, 0xf7, 0x08, 0xbe, 0x82, 0x5a, 0xfd, 0x3e, 0xaf, 0x41, 0xcc, 0xbe, 
0xd2, 0xe3, 0x87, 0xbe, 0xb6, 0x01, 0x04, 0x3c, 0x15, 0x8b, 0xbf, 0x3b, 
0x8b, 0x83, 0x0f, 0xbf, 0x7b, 0xb7, 0x0d, 0xbe, 0x08, 0x43, 0x9b, 0x3e, 
0x73, 0x79, 0x81, 0xbe, 0xcb, 0xa0, 0xc1, 0xbd, 0x36, 0x35, 0xa8, 0x3e, 
0x27, 0xf8, 0xa9, 0x3e, 0xe6, 0x0d, 0xd6, 0x3e, 0xf6, 0x7e, 0x13, 0x3e, 
0x43, 0x41, 0x65, 0xbe, 0x51, 0x9f, 0xbd, 0x3d, 0x2d, 0x4a, 0x08, 0xbf, 
0xfa, 0xc6, 0x07, 0x3e, 0x2f, 0xd7, 0x8a, 0xbe, 0x3c, 0x1d, 0xce, 0x3e, 
0x7a, 0x3d, 0x09, 0xbc, 0x6c, 0xcb, 0x7d, 0xbe, 0x38, 0x67, 0x0a, 0x3e, 
0x0d, 0xc8, 0x8e, 0x3f, 0xad, 0xc7, 0xe3, 0x3e, 0x32, 0x55, 0x72, 0x3e, 
0x32, 0xe2, 0x0b, 0x3e, 0x99, 0xe4, 0x2c, 0x3f, 0xc1, 0x8d, 0x3a, 0xbd, 
0xb7, 0xa5, 0x99, 0x3e, 0x5d, 0x0b, 0x93, 0xbd, 0x64, 0x01, 0x5a, 0x3e, 
0x81, 0x05, 0xf5, 0xbe, 0x3a, 0x19, 0x74, 0xbd, 0x30, 0x28, 0x93, 0x3d, 
0x81, 0x83, 0x1b, 0xbf, 0x4e, 0x6a, 0x96, 0xbe, 0x13, 0x86, 0x88, 0x3e, 
0x97, 0x6a, 0x08, 0xbf, 0xc3, 0x4d, 0x46, 0x3f, 0xb0, 0x27, 0x15, 0xbf, 
0xd8, 0x9b, 0x5e, 0xbf, 0x1d, 0x76, 0xb5, 0xbe, 0x22, 0xba, 0xf3, 0xbe, 
0xba, 0x43, 0xd5, 0xbd, 0x23, 0xa6, 0x48, 0x3e, 0xde, 0xd2, 0x5a, 0x3d, 
0xe7, 0xa1, 0x41, 0xbe, 0x57, 0xcd, 0x3a, 0xbf, 0x1e, 0x3b, 0x09, 0x3f, 
0x08, 0xa2, 0x06, 0xbe, 0x7c, 0x90, 0x2a, 0xbe, 0xe8, 0xfd, 0xde, 0xbe, 
0xb4, 0x7c, 0xa6, 0xbe, 0x9b, 0x01, 0xcb, 0xbe, 0x76, 0x60, 0x89, 0xbf, 
0xf5, 0xe6, 0x80, 0xbd, 0xd5, 0x17, 0xd2, 0x3e, 0xc5, 0x91, 0x9e, 0x3d, 
0xf9, 0x16, 0xb3, 0xbf, 0x39, 0xb4, 0x30, 0xbf, 0xf5, 0x7c, 0x3c, 0xbe, 
0x95, 0xfd, 0x1e, 0xbf, 0x09, 0x4f, 0x73, 0x3d, 0x5e, 0xb1, 0x94, 0xbe, 
0x08, 0xda, 0x96, 0xbb, 0x13, 0x01, 0xe9, 0xbe, 0xb0, 0xbb, 0x89, 0xbe, 
0x7a, 0xe6, 0x47, 0xbe, 0xbf, 0x0b, 0xf8, 0xbc, 0x55, 0x8a, 0x9a, 0x3e, 
0x1a, 0x64, 0x03, 0xbf, 0x98, 0xd3, 0x26, 0x3f, 0x96, 0xbd, 0x13, 0x3f, 
0xa5, 0xd6, 0xbb, 0xbe, 0x60, 0xd6, 0xd8, 0x3d, 0x96, 0x8e, 0x02, 0x3e, 
0x23, 0xaa, 0x01, 0x3e, 0x03, 0xf4, 0x55, 0x3f, 0x38, 0x56, 0x37, 0x3e, 
0x0a, 0x75, 0xc2, 0xbd, 0x4b, 0x2a, 0x8e, 0xbc, 0x4d, 0x7d, 0xf6, 0xbe, 
0x56, 0xc3, 0x42, 0xbf, 0xee, 0x5d, 0xf4, 0xbd, 0x9f, 0x55, 0x80, 0xbd, 
0x50, 0xbd, 0xee, 0xbd, 0xcf, 0xe9, 0x8e, 0xbd, 0x07, 0xe9, 0xff, 0x3e, 
0x20, 0xdd, 0x24, 0x3e, 0xb0, 0xe7, 0x13, 0x3f, 0x09, 0xee, 0x28, 0xbe, 
0x0f, 0x0d, 0x60, 0xbe, 0xb3, 0x40, 0xe4, 0x3e, 0xd4, 0xf9, 0x34, 0x3d, 
0x8b, 0xfa, 0x8b, 0xbe, 0x66, 0x2f, 0xef, 0xbd, 0xc4, 0x98, 0x98, 0x3e, 
0xf3, 0xe5, 0x3d, 0x3c, 0x1a, 0xed, 0x8f, 0xbf, 0xc4, 0x78, 0xf1, 0x3d, 
0x2e, 0x9f, 0x48, 0xbe, 0x5a, 0x60, 0x89, 0x3e, 0x54, 0x91, 0x12, 0xbf, 
0x7d, 0xf3, 0xd5, 0xbe, 0x46, 0x71, 0x37, 0xbe, 0x19, 0x2e, 0x77, 0xbe, 
0xbe, 0x1e, 0x8f, 0xbd, 0x91, 0xde, 0xba, 0x3e, 0x1e, 0x9e, 0x24, 0xbf, 
0x0d, 0xe9, 0xd3, 0xbd, 0x7b, 0xad, 0x86, 0xbe, 0xa6, 0x8a, 0x61, 0x3e, 
0x77, 0x73, 0xaa, 0xbe, 0x98, 0xae, 0x60, 0x3e, 0xa9, 0xc1, 0x8b, 0x3e, 
0x14, 0x5c, 0x14, 0xbc, 0x09, 0x63, 0x04, 0x3e, 0xbe, 0x6b, 0x23, 0xbf, 
0x88, 0x49, 0x17, 0xbe, 0x5a, 0xdb, 0xf3, 0xbd, 0xa7, 0xd2, 0x05, 0x3e, 
0xcf, 0x67, 0xa9, 0xbe, 0x73, 0x3c, 0xec, 0xbd, 0x23, 0x7b, 0x5e, 0xbe, 
0x29, 0xe9, 0x93, 0x3e, 0x63, 0xb2, 0xc8, 0x3e, 0xec, 0x40, 0x00, 0x3e, 
0x79, 0x19, 0x19, 0xbe, 0xae, 0x9e, 0x55, 0xbf, 0xfb, 0x26, 0xc3, 0xbc, 
0x86, 0x4f, 0xe0, 0x3d, 0x21, 0x9a, 0x2e, 0xbd, 0x39, 0xe1, 0xec, 0xbe, 
0xfb, 0xf5, 0xc9, 0x3d, 0x66, 0xde, 0x89, 0x3b, 0x24, 0xde, 0xda, 0x3e, 
0x6b, 0xc0, 0x4d, 0x3d, 0x83, 0x7e, 0x7c, 0x3f, 0x22, 0x15, 0x8f, 0x3e, 
0x6e, 0x30, 0x55, 0x3e, 0xf6, 0x56, 0x62, 0xbe, 0x2a, 0x3e, 0x01, 0x3f, 
0xe7, 0xee, 0x1e, 0x3e, 0x2c, 0x47, 0x62, 0xbe, 0xeb, 0x62, 0x7e, 0xbe, 
0x52, 0x77, 0x8b, 0xbf, 0x4c, 0x18, 0xdb, 0x3e, 0xf2, 0x77, 0x39, 0x3e, 
0xf2, 0x39, 0xa1, 0x3d, 0x5e, 0xdd, 0x56, 0x3e, 0xbe, 0xc4, 0x4e, 0xbe, 
0x8c, 0xd9, 0x15, 0x3f, 0x1e, 0x51, 0xa0, 0x3d, 0x96, 0x1d, 0x6d, 0xbd, 
0x58, 0x18, 0xb3, 0x3e, 0xe5, 0x02, 0x19, 0x3f, 0x2a, 0x92, 0x94, 0xbe, 
0xca, 0xe4, 0xd7, 0xbc, 0xed, 0x4d, 0x08, 0x3f, 0x6a, 0x93, 0x40, 0x3e, 
0xaa, 0x58, 0x32, 0x3e, 0xcb, 0x96, 0x16, 0x3f, 0x57, 0x27, 0x8b, 0x3e, 
0x55, 0x3e, 0x25, 0xbe, 0x43, 0x8c, 0x08, 0x3f, 0x38, 0x1e, 0x35, 0x3e, 
0xeb, 0x7d, 0x4f, 0x3d, 0x0c, 0x73, 0x35, 0x3e, 0x52, 0xce, 0xc3, 0x3e, 
0x2d, 0x58, 0x33, 0xbe, 0x38, 0x95, 0x44, 0x3e, 0xa4, 0xeb, 0x88, 0x3e, 
0x29, 0x16, 0x84, 0xbf, 0x2e, 0x0b, 0xb6, 0x3c, 0x3c, 0x41, 0x45, 0x3e, 
0x35, 0xee, 0x71, 0x3e, 0x8a, 0xce, 0x33, 0x3f, 0x05, 0x5f, 0x0e, 0xbf, 
0xba, 0x15, 0x04, 0xbf, 0x47, 0x0a, 0x67, 0xbe, 0x18, 0xc5, 0x73, 0xbe, 
0xb0, 0xd2, 0x25, 0xbf, 0xa3, 0xdc, 0xcc, 0x3e, 0x07, 0xab, 0xae, 0x3d, 
0xb9, 0x39, 0x40, 0xbf, 0xbe, 0xc4, 0xb6, 0x3e, 0x05, 0x4b, 0x11, 0x3d, 
0xeb, 0xb8, 0xc6, 0x3e, 0x05, 0x1f, 0x28, 0xbf, 0x15, 0xf2, 0xde, 0x3d, 
0xf0, 0x92, 0x7e, 0x3f, 0x88, 0x24, 0xac, 0x3e, 0x82, 0xc3, 0xce, 0xbe, 
0x7e, 0xb8, 0xbf, 0xbc, 0xf1, 0xc7, 0x59, 0x3d, 0xe6, 0x68, 0x0c, 0xbf, 
0xef, 0xad, 0xdc, 0xbb, 0xbc, 0x02, 0x97, 0x3e, 0xdc, 0xa4, 0x53, 0xbe, 
0x02, 0x9f, 0xbb, 0x3e, 0xbf, 0x5d, 0x65, 0x3e, 0xfc, 0x7e, 0x05, 0x3f, 
0xc7, 0x4b, 0xb2, 0xbe, 0xed, 0x4d, 0x4a, 0x3f, 0x57, 0x16, 0x91, 0x3e, 
0x3b, 0xe1, 0x41, 0xbe, 0x0a, 0xcb, 0x64, 0xbf, 0x52, 0x0d, 0x14, 0xbf, 
0x6a, 0x77, 0x99, 0x3e, 0x03, 0x21, 0x2b, 0xbd, 0xb2, 0x20, 0x40, 0xbe, 
0xd0, 0xe3, 0x8c, 0xbe, 0x3b, 0xaa, 0xdd, 0xbe, 0x0b, 0x7f, 0x28, 0xbe, 
0xab, 0xbf, 0x9f, 0x3e, 0x18, 0x2f, 0x41, 0xbe, 0xd3, 0x10, 0xc0, 0x3e, 
0x15, 0x24, 0x31, 0xbf, 0x31, 0xb9, 0x18, 0x3f, 0xe7, 0xda, 0xd5, 0x3e, 
0xcc, 0x46, 0x1d, 0xbe, 0xda, 0x94, 0xba, 0x3d, 0x6f, 0x82, 0x46, 0xbf, 
0x59, 0x9c, 0x9e, 0xbf, 0x1a, 0xc6, 0x18, 0xbc, 0x78, 0xb3, 0xa0, 0x3e, 
0x3a, 0x53, 0xf0, 0x3e, 0x39, 0xe0, 0xb9, 0x3d, 0x40, 0x13, 0x36, 0x3e, 
0x61, 0x84, 0x4b, 0xbf, 0xde, 0x45, 0xb3, 0xbe, 0x4f, 0x34, 0xde, 0xbe, 
0x44, 0x00, 0xe9, 0xbe, 0xe7, 0x85, 0x3a, 0xbf, 0x4a, 0xe7, 0x33, 0xbe, 
0x2a, 0xaf, 0xd6, 0xbb, 0x4a, 0x12, 0x93, 0x3f, 0xf3, 0x6b, 0x70, 0xbd, 
0xac, 0xa1, 0xb1, 0xbd, 0x06, 0x24, 0xb1, 0xbe, 0x57, 0x5f, 0x01, 0x3d, 
0x83, 0xb9, 0xac, 0x3d, 0xdc, 0x27, 0x2f, 0x3f, 0xd5, 0x66, 0x00, 0xbb, 
0x62, 0xc9, 0xd4, 0x3e, 0x30, 0xfd, 0x1c, 0xbf, 0x4a, 0xa4, 0x94, 0xbe, 
0xe1, 0xdf, 0x47, 0x3e, 0x73, 0x31, 0xa4, 0x3e, 0x1d, 0x8f, 0x9d, 0xbe, 
0x29, 0x1a, 0x24, 0xbe, 0x85, 0x90, 0xac, 0xbd, 0x51, 0x71, 0x16, 0x3f, 
0x41, 0xb3, 0x86, 0x3d, 0xc9, 0x95, 0xef, 0x3e, 0x0e, 0x43, 0xe6, 0xbc, 
0xfa, 0x65, 0x82, 0xbe, 0xf5, 0xd6, 0x6f, 0xbd, 0x8f, 0xf4, 0xa7, 0xbe, 
0x4b, 0x04, 0x38, 0x3f, 0x00, 0x87, 0x84, 0xbf, 0x65, 0x27, 0x23, 0xbd, 
0xaa, 0xec, 0x0b, 0xbf, 0x2e, 0x59, 0xe8, 0xbe, 0x02, 0x68, 0x4c, 0x3d, 
0xaf, 0x0e, 0x32, 0xbf, 0x98, 0x5c, 0x32, 0x3d, 0x8d, 0xe8, 0x76, 0x3d, 
0x1d, 0xad, 0x4b, 0xbf, 0xb2, 0x24, 0xa3, 0xbd, 0xa3, 0xf0, 0x07, 0x3f, 
0x74, 0x6e, 0x2f, 0xbe, 0xaf, 0x7f, 0x13, 0xbf, 0xb1, 0x27, 0xd3, 0xbd, 
0xb2, 0x1c, 0x1c, 0x3f, 0xe4, 0x83, 0x7f, 0xbe, 0xbf, 0xd1, 0x75, 0xbd, 
0x3f, 0x04, 0x53, 0x3f, 0xa8, 0x08, 0xd7, 0xbe, 0x79, 0x86, 0x92, 0xbe, 
0x78, 0x69, 0x67, 0x3f, 0x32, 0xb4, 0x38, 0x3e, 0x0f, 0xe3, 0x24, 0x3f, 
0x99, 0xf9, 0xbe, 0xbe, 0xb0, 0xcb, 0xf0, 0xbd, 0x02, 0x95, 0xf6, 0x3e, 
0xcf, 0x26, 0xf1, 0x3d, 0x59, 0x9c, 0xea, 0xbe, 0x5b, 0xa4, 0x20, 0x3f, 
0x77, 0x58, 0x78, 0x3e, 0x30, 0x6f, 0x40, 0xbf, 0x72, 0xbf, 0x4c, 0x3e, 
0xdc, 0xb9, 0x84, 0xbe, 0xc6, 0x53, 0x22, 0xbe, 0x34, 0xf3, 0x79, 0x3e, 
0xec, 0x80, 0x57, 0xbe, 0x07, 0x6f, 0x60, 0xbf, 0xf1, 0xaa, 0x83, 0x3e, 
0x2b, 0xb5, 0x7d, 0xbe, 0xcd, 0x4b, 0x94, 0x3c, 0x41, 0xf3, 0xa6, 0x3e, 
0x71, 0x06, 0x9d, 0x3e, 0x00, 0x02, 0xce, 0x3d, 0xde, 0x71, 0x05, 0x3f, 
0xf6, 0x72, 0xac, 0xbe, 0xe0, 0xc6, 0x5b, 0xbd, 0xfc, 0x4f, 0x17, 0x3e, 
0xa0, 0x3f, 0x21, 0xbe, 0x77, 0x74, 0x5b, 0x3f, 0x91, 0x10, 0xbd, 0xbe, 
0x26, 0x85, 0xb3, 0xbf, 0x38, 0x99, 0x04, 0xbe, 0xa7, 0x95, 0x04, 0x3f, 
0x70, 0x9a, 0x1f, 0x3f, 0xe3, 0x8d, 0xd0, 0xbe, 0x2c, 0x7f, 0x9b, 0x3e, 
0xef, 0x03, 0x48, 0xbe, 0x66, 0x7c, 0xa8, 0xbe, 0xe0, 0x8a, 0x4c, 0x3f, 
0x7a, 0x66, 0x51, 0x3e, 0x0a, 0x3e, 0x7f, 0x3e, 0xfa, 0x9d, 0x87, 0x3d, 
0x28, 0xba, 0x78, 0x3e, 0xf5, 0xc5, 0x42, 0xbf, 0x49, 0xcf, 0x12, 0xbf, 
0x59, 0x18, 0xa2, 0x3e, 0x31, 0xb2, 0xce, 0xbe, 0xff, 0x49, 0x14, 0x3f, 
0x40, 0xe2, 0x5e, 0x3f, 0x21, 0x51, 0x80, 0xbe, 0x05, 0xc2, 0x25, 0xbe, 
0xe9, 0xe1, 0x9a, 0x3e, 0xab, 0x36, 0xcf, 0xbe, 0x45, 0x55, 0x9e, 0xbe, 
0xdd, 0x89, 0xf5, 0xbe, 0x85, 0x76, 0xee, 0x3c, 0x9a, 0x28, 0x46, 0x3d, 
0x9f, 0x58, 0x9d, 0x3e, 0xa7, 0x41, 0x5c, 0x3e, 0x7a, 0x73, 0xa2, 0x3d, 
0xc4, 0x8d, 0x27, 0x3d, 0xf4, 0xb9, 0x44, 0x3e, 0xaf, 0xf1, 0x13, 0x3d, 
0x01, 0x07, 0xf6, 0x3d, 0xcd, 0x9f, 0x0a, 0xbe, 0x95, 0xe6, 0x88, 0x3e, 
0x12, 0x55, 0x7f, 0xbe, 0x92, 0xe6, 0x14, 0xbe, 0xf9, 0x78, 0x9c, 0x3e, 
0x0b, 0xe4, 0x11, 0x3f, 0x95, 0x2d, 0xe5, 0xbc, 0xf7, 0x84, 0x3a, 0xbb, 
0x94, 0xeb, 0x88, 0xbe, 0x32, 0xf9, 0x3a, 0x3e, 0x8b, 0xe1, 0xc6, 0xbe, 
0x43, 0x1d, 0x1c, 0xbd, 0x99, 0xa1, 0x2a, 0xbe, 0x17, 0x34, 0x83, 0x3d, 
0x9f, 0xa0, 0x9d, 0x3e, 0x12, 0x0b, 0x35, 0x3e, 0xf2, 0xdf, 0x76, 0xbe, 
0xec, 0xed, 0xa7, 0x3e, 0xfe, 0x3a, 0xca, 0xbe, 0x3e, 0x87, 0xf6, 0x3d, 
0x59, 0x7e, 0x08, 0x3f, 0x61, 0xe4, 0xbb, 0xbe, 0x8d, 0xa1, 0x3d, 0xbe, 
0x89, 0xdc, 0x28, 0x3f, 0xa9, 0x11, 0xfc, 0xbe, 0xc9, 0xdf, 0x05, 0x3e, 
0x00, 0xdf, 0x58, 0xbe, 0x5e, 0x22, 0x98, 0x3e, 0x66, 0xd5, 0x73, 0x3d, 
0x10, 0xe0, 0xa3, 0xbe, 0xa4, 0x55, 0x3a, 0xbe, 0xf6, 0x6e, 0xab, 0xbe, 
0x79, 0x48, 0x5e, 0x3f, 0xa9, 0xf7, 0x8f, 0x3e, 0xa1, 0x0b, 0x3b, 0xbf, 
0x29, 0x59, 0x8d, 0x3e, 0x07, 0xb7, 0xb7, 0x3e, 0x79, 0x16, 0x7a, 0x3e, 
0x6a, 0x75, 0x9b, 0x3c, 0xda, 0xd0, 0x69, 0xbe, 0x8a, 0x3e, 0x54, 0xbd, 
0xe5, 0xb8, 0x47, 0xbe, 0xe0, 0xc9, 0xae, 0x3e, 0x2a, 0x97, 0xbf, 0x3b, 
0x53, 0x18, 0xb5, 0x3e, 0x75, 0xdb, 0xe8, 0x3e, 0xe9, 0xea, 0x5d, 0xbe, 
0x2e, 0x8e, 0x44, 0x3e, 0x48, 0xa8, 0x5f, 0xbd, 0xa9, 0x5e, 0x0a, 0xbf, 
0xfe, 0x7f, 0x9e, 0xbe, 0xbf, 0x82, 0x7e, 0xbd, 0x38, 0x49, 0x14, 0xbe, 
0xf6, 0xe6, 0xcd, 0x3d, 0xde, 0x01, 0x7d, 0x3e, 0xc5, 0x7a, 0x8d, 0x3e, 
0x49, 0xc3, 0x07, 0x3f, 0x56, 0x2d, 0xb2, 0xbe, 0x00, 0xb4, 0xe1, 0x3d, 
0xb2, 0xeb, 0x8c, 0x3f, 0xf9, 0x82, 0x7a, 0xbd, 0x6b, 0xf0, 0xe9, 0xbe, 
0x32, 0x35, 0x18, 0x3f, 0x03, 0x99, 0x73, 0x3d, 0x1a, 0x9b, 0xcc, 0xbe, 
0x6e, 0x3e, 0xd0, 0xbd, 0x64, 0x96, 0xb2, 0x3e, 0x01, 0x6c, 0x85, 0xbe, 
0xe6, 0x3c, 0x86, 0xbd, 0x86, 0x29, 0x39, 0xbf, 0x5c, 0xcf, 0x95, 0xbe, 
0x78, 0x88, 0xe8, 0xbe, 0x55, 0x4e, 0x1e, 0x3f, 0x45, 0xcc, 0x98, 0x3f, 
0xbc, 0x17, 0x18, 0x3f, 0xf9, 0xb5, 0x1c, 0xbf, 0x94, 0x3d, 0x38, 0x3f, 
0xf4, 0xb2, 0x56, 0x3e, 0x98, 0xc9, 0x8d, 0x3f, 0x8f, 0xb0, 0xa5, 0x3e, 
0xf3, 0x85, 0x3d, 0x3f, 0x2e, 0x9c, 0xc5, 0xbc, 0x20, 0x73, 0xb5, 0xbe, 
0xfe, 0x10, 0x5e, 0x3f, 0xa4, 0xa8, 0x30, 0xbf, 0x47, 0x6f, 0x28, 0x3f, 
0x42, 0x2a, 0x20, 0x3f, 0xc3, 0x13, 0x8d, 0xbe, 0xa9, 0x8a, 0xea, 0xbe, 
0xf0, 0x83, 0xa9, 0xbe, 0x01, 0xd6, 0x2d, 0xbd, 0xb5, 0x9c, 0x5d, 0x3f, 
0xbb, 0x83, 0xcb, 0x3d, 0xe1, 0x71, 0xbb, 0xbd, 0x16, 0x24, 0xa2, 0x3e, 
0xfe, 0x0e, 0x0d, 0x3f, 0x12, 0x9d, 0x7e, 0xbe, 0x1d, 0xaa, 0x07, 0xbd, 
0x83, 0x9a, 0x59, 0xbd, 0x2d, 0x72, 0x6a, 0x3e, 0x77, 0xc1, 0x22, 0xbf, 
0xe5, 0x31, 0x4c, 0xbd, 0x78, 0xe3, 0x82, 0x3e, 0x81, 0xe4, 0xf0, 0xbd, 
0xed, 0x94, 0x43, 0x3d, 0x8d, 0x8f, 0xa9, 0x3e, 0xaf, 0x99, 0x82, 0x3e, 
0x53, 0x09, 0x64, 0xbf, 0x10, 0x07, 0xa6, 0xbc, 0x72, 0x6c, 0x53, 0x3e, 
0xe9, 0xa1, 0x73, 0x3c, 0x97, 0x26, 0x58, 0x3f, 0xbb, 0x5e, 0xa8, 0x3d, 
0xfe, 0xe2, 0x9f, 0xba, 0x7d, 0x50, 0xc8, 0xbe, 0x41, 0x53, 0xc3, 0xbd, 
0x29, 0x24, 0x3c, 0x3e, 0x03, 0x55, 0x1c, 0xbf, 0x9b, 0xe8, 0xdf, 0xbe, 
0x3e, 0x18, 0xb2, 0xbd, 0x75, 0x96, 0x13, 0x3f, 0xb3, 0x5a, 0x44, 0x3e, 
0xd0, 0x03, 0x85, 0xbe, 0xb8, 0x7f, 0x10, 0xbe, 0x58, 0xf1, 0x8e, 0x3e, 
0xfe, 0x05, 0xa4, 0xbe, 0x4b, 0xbc, 0x0a, 0xbf, 0xf6, 0x31, 0xa5, 0x3d, 
0x24, 0x7c, 0xa7, 0x3e, 0x9d, 0xf4, 0x88, 0xbd, 0xec, 0xdd, 0x8b, 0x3b, 
0x93, 0xca, 0x2e, 0x3e, 0xbc, 0xc8, 0x32, 0xbe, 0x80, 0xd1, 0x61, 0xbe, 
0xbe, 0x4a, 0xf1, 0xbd, 0xd8, 0x69, 0x9b, 0x3d, 0x84, 0x86, 0x24, 0x3f, 
0x6d, 0x0b, 0x7b, 0x3f, 0xa8, 0xa3, 0x90, 0xbe, 0x27, 0xbf, 0xbd, 0xbe, 
0x8b, 0xf3, 0x1e, 0xbe, 0x06, 0x28, 0xcf, 0xbd, 0x1b, 0x35, 0x3c, 0xbf, 
0xfd, 0xf2, 0x08, 0xbf, 0xc6, 0xd2, 0x6b, 0x3c, 0xb5, 0xc9, 0x5b, 0xbf, 
0x72, 0x52, 0x7a, 0xbe, 0xe2, 0x7f, 0xaa, 0x3e, 0xe2, 0x2c, 0xb2, 0x3e, 
0x87, 0x8f, 0xf7, 0xbd, 0xa3, 0x20, 0x55, 0xbe, 0xb0, 0x7d, 0x52, 0x3f, 
0x65, 0x6c, 0xa3, 0x3e, 0xc6, 0x0f, 0x34, 0x3e, 0x5e, 0x3c, 0xcc, 0x3e, 
0xbc, 0xc0, 0x3b, 0x3d, 0xb7, 0xc4, 0x0f, 0x3f, 0xa7, 0x6a, 0xad, 0x3e, 
0xb4, 0x85, 0x9c, 0xbe, 0xca, 0x17, 0x50, 0x3e, 0x5e, 0xf3, 0x92, 0x3e, 
0xf6, 0x63, 0x54, 0x3f, 0x5d, 0xcd, 0x08, 0x3f, 0xe7, 0x0f, 0x46, 0xbe, 
0x12, 0xe2, 0x2c, 0x3e, 0x93, 0x64, 0x08, 0x3f, 0x73, 0xbb, 0x13, 0x3f, 
0xcf, 0xc4, 0x00, 0x3f, 0x4c, 0x7d, 0x85, 0x3e, 0x1b, 0x97, 0xd7, 0xbe, 
0x6e, 0xce, 0x7a, 0xbe, 0xa2, 0x67, 0xd6, 0xbe, 0xa8, 0x9f, 0xe7, 0xbd, 
0x7f, 0x19, 0x64, 0xbe, 0x72, 0xc2, 0x84, 0xbd, 0x86, 0x31, 0xb3, 0xbe, 
0x6a, 0xcf, 0xaf, 0x3e, 0x70, 0x45, 0x8a, 0x3d, 0xa6, 0x3f, 0xf7, 0x3e, 
0xb0, 0x08, 0xfd, 0x3e, 0x83, 0x27, 0x6f, 0xbe, 0x92, 0xff, 0x23, 0x3f, 
0x51, 0xe6, 0xe5, 0xbe, 0x42, 0xaf, 0x0b, 0xbd, 0x75, 0x00, 0x9f, 0xbd, 
0x44, 0x66, 0x3b, 0x3f, 0x65, 0x65, 0xa7, 0xbe, 0x48, 0xf2, 0x1a, 0x3f, 
0xdb, 0x3d, 0x8b, 0xbe, 0x25, 0xcf, 0x4a, 0xbd, 0xd2, 0xb9, 0xfd, 0x3e, 
0xbe, 0x3d, 0xc1, 0x3e, 0x9e, 0x9f, 0x54, 0xbd, 0x93, 0xd6, 0x8e, 0xbe, 
0xcd, 0xb1, 0xae, 0x3e, 0xe5, 0x60, 0x19, 0x3f, 0x8c, 0x86, 0xab, 0x3c, 
0xda, 0x21, 0x01, 0x3e, 0x47, 0xd4, 0x18, 0x3e, 0x40, 0xfa, 0xf6, 0xbe, 
0x7b, 0x82, 0x85, 0x3e, 0xa1, 0xf3, 0xc6, 0x3e, 0xbb, 0x6c, 0xca, 0x3e, 
0x7e, 0xeb, 0x00, 0xbf, 0x75, 0xd9, 0xe3, 0xbd, 0x12, 0xf5, 0xc4, 0xbd, 
0xe1, 0xa8, 0x68, 0x3e, 0x55, 0xc7, 0x92, 0x3e, 0xb5, 0xa2, 0xe7, 0x3e, 
0xbd, 0xbe, 0x48, 0xbf, 0x41, 0x64, 0x3c, 0xbe, 0xe6, 0x81, 0x61, 0xbd, 
0xeb, 0xdf, 0xa6, 0x3e, 0x57, 0xcf, 0xad, 0x3e, 0xa8, 0x31, 0xa1, 0x3e, 
0xf8, 0x69, 0x8f, 0xbd, 0x64, 0x80, 0x87, 0x3e, 0x1a, 0x4d, 0x51, 0xbe, 
0xdd, 0x75, 0xaa, 0x3e, 0xa6, 0xa5, 0x05, 0x3f, 0xd0, 0x83, 0x98, 0xbd, 
0x33, 0x43, 0xc7, 0xbe, 0x7b, 0x08, 0xb2, 0xbd, 0x21, 0xae, 0x0a, 0x3f, 
0x1c, 0x34, 0xac, 0xbe, 0x5f, 0xc6, 0x45, 0xbf, 0x84, 0x10, 0x1f, 0xbf, 
0x74, 0x50, 0xb4, 0xbe, 0x16, 0x39, 0xf1, 0xbe, 0xbf, 0xdd, 0x00, 0xbf, 
0x3d, 0xef, 0xac, 0xbe, 0xca, 0xae, 0x46, 0xbf, 0x89, 0x86, 0xd6, 0x3d, 
0xb1, 0x0f, 0x3e, 0x3f, 0x1a, 0xbe, 0x38, 0xbf, 0x48, 0x63, 0x07, 0x3f, 
0x43, 0xc8, 0x28, 0x3e, 0x55, 0x38, 0x2b, 0x3e, 0x04, 0x97, 0xa3, 0xbe, 
0x5e, 0x65, 0x8e, 0x3d, 0x79, 0x03, 0x68, 0x3e, 0x19, 0x27, 0x52, 0xbf, 
0x40, 0xf0, 0x9e, 0x3e, 0xf2, 0x4f, 0x2d, 0xbe, 0x6a, 0x30, 0x00, 0x3f, 
0xd3, 0x7e, 0x36, 0x3f, 0x50, 0xe7, 0x2c, 0x3f, 0xd7, 0x0f, 0x80, 0xbd, 
0x39, 0x21, 0x20, 0x3f, 0x1f, 0x3a, 0x4b, 0xbf, 0x64, 0x8c, 0xae, 0xbe, 
0x6c, 0x05, 0x35, 0xbf, 0x41, 0x8f, 0xa4, 0xbe, 0x1b, 0x41, 0xca, 0x3b, 
0x7d, 0x60, 0x9c, 0x3e, 0x5a, 0x20, 0x9f, 0x3d, 0xdb, 0x4d, 0xa5, 0x3e, 
0xf7, 0x4b, 0x07, 0x3e, 0xab, 0x3e, 0xa5, 0xbf, 0x86, 0xbe, 0x34, 0xbe, 
0x2f, 0xa2, 0x12, 0x3f, 0xc4, 0xd5, 0x23, 0xbf, 0x2f, 0xce, 0x0c, 0x3f, 
0xaa, 0xb2, 0x04, 0xbe, 0x3c, 0x75, 0xe9, 0x3e, 0x83, 0x8e, 0x68, 0x3e, 
0x1a, 0x25, 0xb0, 0x3e, 0x31, 0xb5, 0xdb, 0x3d, 0x8a, 0x80, 0x93, 0xbe, 
0x06, 0xf2, 0x44, 0x3e, 0x86, 0x75, 0x4d, 0xbe, 0x3b, 0x6d, 0x79, 0xbb, 
0xdd, 0xcc, 0xe7, 0xbe, 0x44, 0x53, 0xa9, 0x3e, 0x5a, 0xbb, 0x4f, 0xbe, 
0x17, 0x83, 0xda, 0x3e, 0x0f, 0x71, 0xe3, 0xbe, 0xb8, 0x48, 0x95, 0xbe, 
0xcb, 0x5a, 0x8f, 0x3e, 0x27, 0x1a, 0x8b, 0xbd, 0x54, 0x5b, 0x9c, 0x3c, 
0xe5, 0xfc, 0xbf, 0x3d, 0x86, 0xb4, 0xbd, 0x3e, 0x4a, 0x56, 0xb9, 0xbc, 
0x33, 0x57, 0x9f, 0x3e, 0x8b, 0x32, 0x3b, 0xbe, 0xd3, 0xe7, 0xe9, 0xbe, 
0x92, 0xc1, 0xe4, 0xbe, 0x41, 0x68, 0x78, 0xbd, 0x69, 0xe7, 0x55, 0x3e, 
0xf9, 0x43, 0x8c, 0x3c, 0x99, 0x81, 0xcc, 0xbe, 0x63, 0xb7, 0x8f, 0x3d, 
0x49, 0x66, 0x1d, 0x3e, 0xf7, 0x43, 0x4a, 0x3e, 0x90, 0x44, 0x83, 0x3d, 
0x12, 0x09, 0xeb, 0x3c, 0xb5, 0x49, 0x42, 0xbe, 0x45, 0xca, 0x0e, 0x3e, 
0x84, 0x57, 0xff, 0xbe, 0x86, 0x72, 0x08, 0x3f, 0x24, 0x46, 0x23, 0xbb, 
0x44, 0xc4, 0x84, 0x3e, 0x8f, 0x33, 0x1d, 0x3f, 0xaa, 0xbc, 0xcc, 0x3e, 
0xc2, 0xb2, 0xb8, 0x3f, 0x38, 0x52, 0x11, 0x3f, 0x8e, 0x15, 0x27, 0x3e, 
0xb4, 0xf0, 0x07, 0x3e, 0x74, 0x9a, 0xae, 0x3e, 0x5f, 0x67, 0xca, 0xbd, 
0xa0, 0x48, 0x51, 0xbc, 0xda, 0xcd, 0x72, 0xbe, 0xf6, 0x70, 0xa2, 0xbe, 
0xbe, 0x2d, 0xbd, 0x3e, 0x96, 0x41, 0x19, 0x3e, 0x86, 0x21, 0x19, 0xbf, 
0xcb, 0x6d, 0xa0, 0xbe, 0x65, 0xa3, 0x4d, 0x3f, 0x3d, 0x17, 0xbf, 0xbc, 
0x78, 0x5e, 0x84, 0x3e, 0xcd, 0x91, 0xf8, 0xbc, 0x88, 0x48, 0xe9, 0x3e, 
0x2d, 0xab, 0x2b, 0xbd, 0xe2, 0x2b, 0x35, 0x3d, 0xb2, 0xcd, 0x70, 0xbd, 
0xd0, 0xdf, 0x30, 0x3e, 0x5a, 0x89, 0xb4, 0xbe, 0x0d, 0xc8, 0x1b, 0x3f, 
0x7e, 0xc7, 0xca, 0xbd, 0x50, 0x89, 0xef, 0xbe, 0x67, 0xb2, 0x9b, 0xbe, 
0x9f, 0xeb, 0x91, 0xbd, 0x13, 0x0b, 0x70, 0xbd, 0xbc, 0xfa, 0xa6, 0x3e, 
0xcb, 0xd4, 0xe9, 0xbe, 0xde, 0x41, 0x00, 0xbf, 0xa4, 0x89, 0x1b, 0x3f, 
0x81, 0xf8, 0x37, 0xbd, 0x00, 0x3d, 0xb8, 0xbd, 0xc1, 0x81, 0xa4, 0x3c, 
0xff, 0x5a, 0x0c, 0xbc, 0x77, 0x5b, 0x4c, 0x3e, 0xa1, 0xd6, 0x0a, 0x3f, 
0x46, 0x15, 0x8f, 0xbe, 0x59, 0x79, 0x44, 0xbd, 0xd4, 0x71, 0x42, 0x3f, 
0xa5, 0x98, 0x64, 0x3c, 0x38, 0xb1, 0x13, 0xbe, 0xff, 0xf3, 0xe4, 0xbe, 
0x69, 0x8e, 0x82, 0xbe, 0xc2, 0x05, 0x1f, 0x3e, 0x98, 0x5b, 0xce, 0x3e, 
0x32, 0x8f, 0x17, 0x3e, 0x6c, 0x5c, 0xa2, 0xbf, 0xf7, 0xd4, 0x58, 0xbf, 
0x1e, 0x1e, 0xa8, 0x3e, 0x3a, 0x60, 0xc7, 0xbd, 0x64, 0x8e, 0x6f, 0x3e, 
0x6b, 0xda, 0x1a, 0xbf, 0xf3, 0x0d, 0x07, 0xbf, 0xe7, 0xf7, 0x53, 0xbe, 
0xe5, 0x31, 0xe8, 0x3e, 0xcb, 0x1e, 0x5c, 0xbe, 0x46, 0xdf, 0xe8, 0x3d, 
0x1f, 0xba, 0x6d, 0xbe, 0x90, 0xcb, 0x91, 0x3e, 0x6c, 0xe5, 0x81, 0xbd, 
0x09, 0x24, 0x21, 0x3e, 0xbb, 0xb8, 0x2a, 0xbc, 0x7f, 0x0d, 0xa6, 0xbe, 
0x45, 0x84, 0x37, 0xbe, 0x17, 0x2a, 0xe5, 0xbc, 0xc2, 0x39, 0x6a, 0x3e, 
0xed, 0xc0, 0x8f, 0xbe, 0x36, 0xee, 0x2f, 0xbc, 0x36, 0x33, 0xb9, 0xbe, 
0x7e, 0xc0, 0xd0, 0xbe, 0x86, 0x22, 0x11, 0xbf, 0xbf, 0x22, 0x23, 0xbf, 
0x44, 0xc4, 0xf5, 0xbe, 0x34, 0xed, 0xf3, 0x3e, 0x1f, 0xa4, 0x32, 0x3e, 
0xff, 0xd7, 0x03, 0x3e, 0xba, 0x26, 0x52, 0xbe, 0x3e, 0xe6, 0x8e, 0x3e, 
0x43, 0x8c, 0x28, 0x3e, 0x6e, 0x47, 0xda, 0xbe, 0xb5, 0xdd, 0x2a, 0x3f, 
0xc5, 0xc3, 0x00, 0xbf, 0xdd, 0x8f, 0x93, 0xbe, 0xf1, 0x5a, 0x37, 0xbe, 
0x70, 0xdb, 0xe3, 0x3d, 0x9d, 0xd2, 0xb2, 0xbe, 0x7a, 0xeb, 0x8a, 0xbf, 
0x67, 0xba, 0x19, 0x3e, 0x03, 0x00, 0xd0, 0x3e, 0xa8, 0x96, 0x85, 0x3e, 
0x86, 0x54, 0xf5, 0xbd, 0x03, 0x45, 0xed, 0xbe, 0x2c, 0x8d, 0x4c, 0xbf, 
0x99, 0x8f, 0x64, 0xbd, 0x6a, 0x31, 0x95, 0x3e, 0x69, 0x05, 0x65, 0xbe, 
0xeb, 0x0f, 0x9d, 0x3e, 0xb5, 0xec, 0x0a, 0xbf, 0xf0, 0x06, 0x83, 0x3d, 
0xb6, 0xb9, 0x8e, 0x3e, 0x67, 0x37, 0xc0, 0xbc, 0x29, 0xa9, 0xf5, 0x3b, 
0x03, 0x49, 0x6d, 0x3e, 0x98, 0xa5, 0x69, 0x3e, 0xf2, 0xf1, 0x69, 0x3d, 
0xac, 0x1a, 0x93, 0xbe, 0x8c, 0x54, 0x7e, 0xbd, 0x4a, 0xb5, 0x17, 0x3e, 
0x11, 0x1d, 0xb2, 0x3e, 0x82, 0xe4, 0x19, 0x3f, 0x31, 0x7f, 0x34, 0x3e, 
0x74, 0x1d, 0x4b, 0x3d, 0xc9, 0x97, 0x20, 0xbd, 0xd4, 0x04, 0xa4, 0x3e, 
0x88, 0x83, 0xc8, 0x3d, 0xfd, 0x9f, 0x9d, 0x3e, 0xe5, 0x7e, 0xe5, 0xbe, 
0x92, 0xd3, 0x3e, 0xbf, 0x13, 0xeb, 0x20, 0xbe, 0x45, 0xf6, 0xad, 0x3e, 
0x04, 0xde, 0x13, 0xbc, 0x76, 0x8e, 0x93, 0xbe, 0x03, 0x1a, 0xf7, 0x3e, 
0xe9, 0x82, 0x37, 0x3e, 0x0c, 0x1c, 0x8d, 0xbe, 0x95, 0x39, 0xa0, 0x3e, 
0xf5, 0x94, 0xe3, 0x3e, 0x38, 0xea, 0x26, 0x3f, 0x10, 0x04, 0x75, 0xbd, 
0xca, 0xcb, 0x1e, 0x3e, 0x29, 0x7a, 0x4f, 0xbf, 0xd5, 0xf4, 0x10, 0xbd, 
0xba, 0xe5, 0x8b, 0x3e, 0x3e, 0xa3, 0x45, 0xbe, 0x5d, 0xf4, 0x35, 0x3e, 
0xfa, 0xd8, 0x52, 0xbe, 0xf2, 0x8f, 0xb9, 0xbf, 0x68, 0x5b, 0x68, 0xbe, 
0x49, 0xf9, 0x2c, 0x3b, 0x68, 0x81, 0x06, 0xbf, 0x34, 0xd2, 0x2c, 0x3e, 
0x0f, 0x2f, 0xef, 0xbe, 0x3c, 0xd2, 0x9c, 0x3e, 0x2b, 0x9e, 0x67, 0xbe, 
0xc2, 0x93, 0xa8, 0xbe, 0xae, 0x6d, 0xa1, 0xbe, 0x51, 0x3b, 0xdb, 0x3c, 
0x8f, 0x99, 0xe4, 0xbe, 0xe6, 0x25, 0x3b, 0x3e, 0xa0, 0xf2, 0x89, 0xbe, 
0xc7, 0x70, 0xa1, 0xbd, 0x21, 0xe3, 0xa6, 0xbd, 0x9e, 0x6e, 0x20, 0xbf, 
0xb3, 0xc4, 0xd6, 0x3e, 0xab, 0xbb, 0xe9, 0x3d, 0x8b, 0x2d, 0xc4, 0xbe, 
0x56, 0x79, 0x2f, 0xbe, 0x3c, 0x87, 0xaa, 0x3e, 0x02, 0x0a, 0x33, 0xbf, 
0xaa, 0xe2, 0x9c, 0x3e, 0xd0, 0xd2, 0x02, 0xbf, 0x5d, 0x88, 0xce, 0x3d, 
0xf6, 0x27, 0xe8, 0xbd, 0x93, 0xc4, 0x92, 0xbe, 0xb5, 0x19, 0xf2, 0xbe, 
0xae, 0xaa, 0x36, 0xbe, 0x7c, 0x36, 0x41, 0x3f, 0x03, 0x25, 0x7a, 0xbf, 
0x0c, 0x4a, 0x22, 0xbd, 0xfe, 0xfc, 0x1c, 0xbf, 0xe8, 0x50, 0x1e, 0xbf, 
0x8a, 0x5d, 0xe6, 0xbe, 0x89, 0x9e, 0x0c, 0xbe, 0x0f, 0x87, 0x1d, 0x3f, 
0xfe, 0xeb, 0x8c, 0xbf, 0x60, 0x45, 0xfe, 0xbe, 0x60, 0x31, 0x7e, 0x3e, 
0x3c, 0x43, 0x87, 0xbe, 0x0f, 0x4c, 0x56, 0x3e, 0x15, 0xd4, 0x4f, 0xbf, 
0x0a, 0xc7, 0x3f, 0x3e, 0x91, 0xaa, 0x84, 0x3e, 0xe6, 0x42, 0x8f, 0x3e, 
0x86, 0x29, 0x7d, 0xbc, 0xf3, 0x43, 0xaf, 0xbc, 0x6c, 0x3e, 0x15, 0x3f, 
0x10, 0x63, 0x14, 0xbf, 0xc1, 0xcb, 0x66, 0x3e, 0x45, 0x9a, 0x22, 0x3f, 
0x3c, 0xc5, 0x15, 0xbd, 0xe5, 0x23, 0xaa, 0x3e, 0x77, 0x6e, 0x82, 0xbe, 
0xca, 0x5c, 0x59, 0xbf, 0xa9, 0x33, 0x53, 0xbf, 0x84, 0x99, 0xe0, 0x3e, 
0x47, 0xac, 0x15, 0xbf, 0xd7, 0xe5, 0xf8, 0xbd, 0xda, 0x35, 0x72, 0xbf, 
0x16, 0x07, 0x03, 0xbf, 0x76, 0x88, 0x18, 0xbf, 0x8d, 0x0f, 0x46, 0x3d, 
0x39, 0xb4, 0x21, 0x3e, 0x68, 0x80, 0xbf, 0xbe, 0xd1, 0xee, 0x0e, 0xbe, 
0x9b, 0xeb, 0x8a, 0xbd, 0x7f, 0x92, 0x94, 0xbe, 0x0f, 0xae, 0xb2, 0xbd, 
0x37, 0xa5, 0xed, 0xbe, 0xe7, 0x43, 0x57, 0x3e, 0xa1, 0x4f, 0x2d, 0xbe, 
0x9b, 0x2d, 0xc3, 0xbe, 0xf6, 0x78, 0x19, 0x3e, 0x44, 0x3e, 0x2a, 0xbe, 
0x0f, 0x5d, 0x34, 0xbf, 0xb6, 0x16, 0x58, 0xbf, 0xb1, 0x27, 0x93, 0xbe, 
0x3c, 0x7f, 0x0e, 0xbe, 0xc6, 0x88, 0x99, 0x3e, 0x28, 0x39, 0x5b, 0x3d, 
0xfa, 0xfa, 0x06, 0xbf, 0x28, 0xc7, 0x72, 0xbf, 0x45, 0x9e, 0x7c, 0xbe, 
0x46, 0x48, 0x01, 0x3f, 0xd2, 0x3e, 0x85, 0x3e, 0x98, 0x09, 0x12, 0x3e, 
0x19, 0x9b, 0xf8, 0xbe, 0xc1, 0xb7, 0xb7, 0xbd, 0xe4, 0x35, 0x00, 0x3e, 
0xb7, 0x67, 0xa0, 0xbe, 0x0e, 0xc3, 0x7e, 0x3e, 0x94, 0x41, 0x7c, 0xbe, 
0x19, 0xe9, 0x3d, 0xbe, 0xb1, 0xed, 0x05, 0xbf, 0x9c, 0xae, 0x8f, 0xbe, 
0x2d, 0xbb, 0x3d, 0xbf, 0x45, 0xfb, 0x36, 0xbb, 0x22, 0x81, 0x89, 0x3e, 
0x97, 0xec, 0x78, 0x3e, 0xdb, 0x86, 0xc9, 0x3c, 0x00, 0x59, 0xd6, 0x3e, 
0x7a, 0x3b, 0x03, 0xbf, 0xff, 0x15, 0xbd, 0xbc, 0xad, 0x7b, 0xf2, 0xbe, 
0x06, 0x96, 0x19, 0xbe, 0xcd, 0xc8, 0x15, 0xbf, 0x56, 0x74, 0x95, 0xbf, 
0xef, 0x13, 0xe0, 0xbe, 0xb1, 0x43, 0xd1, 0xbd, 0x2c, 0xe5, 0xcc, 0xbc, 
0x8b, 0x3c, 0x04, 0x3e, 0x35, 0x02, 0xfb, 0x3e, 0x53, 0x2e, 0x49, 0x3e, 
0x5b, 0x3f, 0x40, 0xbc, 0x1f, 0xf9, 0xb9, 0xbe, 0xf6, 0xf3, 0xcb, 0x3d, 
0x6c, 0x1b, 0x4c, 0xbd, 0xd6, 0x92, 0x9a, 0xbe, 0xb6, 0xfc, 0x97, 0x3d, 
0x9a, 0x7c, 0xd8, 0xbe, 0x25, 0x82, 0xe0, 0xbd, 0xec, 0xb6, 0x5d, 0xbe, 
0x86, 0xc2, 0x2f, 0xbe, 0x55, 0x96, 0xb0, 0x3d, 0xc5, 0x82, 0x16, 0xbe, 
0xaa, 0x46, 0x96, 0x3d, 0x46, 0x04, 0xde, 0x3e, 0xf1, 0x95, 0x30, 0x3d, 
0x6b, 0x4f, 0x0d, 0xbe, 0x8d, 0x7b, 0xa4, 0xbe, 0xa3, 0xa9, 0xe1, 0x3e, 
0x41, 0x95, 0x64, 0x3e, 0x4e, 0x90, 0xa5, 0xbe, 0xe0, 0x81, 0x8a, 0xbe, 
0x2a, 0xc2, 0x57, 0x3e, 0xd2, 0x06, 0x86, 0x3e, 0x86, 0x4b, 0xa4, 0x3d, 
0x37, 0x29, 0x46, 0xbf, 0xbf, 0x38, 0xcc, 0xbe, 0x91, 0x9b, 0x58, 0xbe, 
0x8e, 0xc1, 0x84, 0xbe, 0xb7, 0x76, 0x3d, 0xbd, 0x14, 0x0e, 0x7f, 0xbd, 
0x29, 0x06, 0xcc, 0xbe, 0x99, 0xfe, 0x3f, 0x3f, 0xa2, 0x72, 0xa6, 0x3e, 
0x8a, 0x60, 0xa7, 0xbe, 0x41, 0x4d, 0x1b, 0x3e, 0x82, 0xe1, 0x99, 0xbd, 
0x30, 0xf1, 0xc0, 0x3e, 0xf9, 0x98, 0x2f, 0x3e, 0x8f, 0x87, 0x94, 0x3e, 
0xee, 0x3c, 0x81, 0xbe, 0x84, 0xf2, 0x8e, 0x3e, 0x32, 0x02, 0x81, 0xbe, 
0xf5, 0x16, 0x9c, 0x3d, 0x2f, 0x56, 0xad, 0x3e, 0xce, 0x05, 0x14, 0xbe, 
0x11, 0x7f, 0xf8, 0x3e, 0xcb, 0xde, 0x1c, 0xbf, 0x0b, 0x58, 0xd6, 0x3d, 
0x7c, 0x7d, 0xf6, 0xbd, 0x13, 0xaf, 0x19, 0xbf, 0x5c, 0x22, 0x50, 0xbd, 
0x73, 0x48, 0xd5, 0x3e, 0xa1, 0x97, 0x09, 0xbf, 0x74, 0xb7, 0xe9, 0x3c, 
0xf9, 0x06, 0xc2, 0xbd, 0xc0, 0xf8, 0x2c, 0xbd, 0x6e, 0xb3, 0xd5, 0x3c, 
0xff, 0xe6, 0xed, 0x3e, 0xdd, 0x97, 0x45, 0xbf, 0xd0, 0xf3, 0x9d, 0xbd, 
0x5a, 0x55, 0x39, 0xbe, 0x78, 0x75, 0xdb, 0x3b, 0x87, 0xd6, 0x93, 0xbe, 
0x3c, 0x17, 0x31, 0xbb, 0xa5, 0x2c, 0x53, 0xbf, 0xd7, 0x36, 0x72, 0xbf, 
0x97, 0x35, 0xc3, 0xbe, 0x51, 0x72, 0xc9, 0xbe, 0x22, 0xe5, 0x50, 0x3d, 
0x9d, 0x5b, 0x99, 0x3e, 0x7b, 0xaa, 0x18, 0xbf, 0xd3, 0xfc, 0x02, 0x3f, 
0x8f, 0x22, 0x0c, 0xbf, 0xa6, 0xd8, 0x9c, 0x3e, 0x2b, 0xde, 0x21, 0x3f, 
0xdb, 0xe6, 0x4f, 0xbe, 0x57, 0x74, 0xfe, 0x3e, 0x9a, 0x16, 0x85, 0x3e, 
0xeb, 0xcb, 0x0c, 0x3f, 0xea, 0x92, 0x03, 0xbf, 0xec, 0x1b, 0x24, 0xbf, 
0x32, 0xd2, 0x35, 0x3d, 0x0f, 0xcd, 0x81, 0xbf, 0x5b, 0x6f, 0x1c, 0x3e, 
0xf5, 0x36, 0x69, 0x3c, 0xbe, 0xcb, 0x8b, 0x3e, 0x54, 0xf2, 0x58, 0x3e, 
0xc5, 0x05, 0x4e, 0x3d, 0x81, 0x52, 0x03, 0x3e, 0xd2, 0xf8, 0x40, 0xbe, 
0x2e, 0x97, 0xf3, 0x3d, 0x57, 0x0f, 0x92, 0xbe, 0x9c, 0xf2, 0xb9, 0xbc, 
0x96, 0x17, 0xc2, 0xbc, 0xd0, 0x32, 0x47, 0xbd, 0xfd, 0xbf, 0x5e, 0xbd, 
0x21, 0xf0, 0x8e, 0x3e, 0xe5, 0x92, 0xa2, 0x3d, 0xc0, 0x00, 0x2f, 0xbe, 
0x10, 0xe8, 0x4d, 0x3e, 0x38, 0x49, 0xd1, 0xbe, 0x69, 0xee, 0x05, 0xbf, 
0xcc, 0x87, 0xd3, 0xbe, 0xcd, 0xb4, 0x3a, 0xbf, 0xb6, 0xf7, 0x6f, 0xbe, 
0x1d, 0xb5, 0x01, 0x3e, 0x6a, 0x06, 0x16, 0x3f, 0x79, 0x54, 0x18, 0x3e, 
0x36, 0xb4, 0xd1, 0xbe, 0x7e, 0x87, 0x6f, 0xbf, 0x7d, 0x38, 0x2e, 0xbd, 
0x09, 0xfe, 0x6a, 0xbf, 0xde, 0x7e, 0xce, 0xbe, 0x44, 0xc8, 0x6e, 0x3e, 
0x7c, 0x42, 0x64, 0x3e, 0x31, 0xc7, 0x04, 0xbf, 0x74, 0x0e, 0x9f, 0xbe, 
0x07, 0x9c, 0xac, 0x3b, 0xff, 0x85, 0x8e, 0xbd, 0x77, 0x78, 0x28, 0xbe, 
0x25, 0x1d, 0x17, 0x3e, 0x81, 0xde, 0x90, 0x3e, 0x56, 0xc7, 0x10, 0x3f, 
0x9a, 0x9a, 0x10, 0x3f, 0x09, 0x24, 0x14, 0x3f, 0xbc, 0x47, 0xff, 0x3e, 
0x25, 0x9a, 0xde, 0x3b, 0x67, 0x74, 0x2a, 0x3e, 0x18, 0x4d, 0x78, 0xbe, 
0x6f, 0x86, 0x5c, 0x3e, 0x0a, 0x10, 0x15, 0x3e, 0xc4, 0x51, 0xc2, 0xbe, 
0x45, 0xbf, 0x5e, 0xbe, 0xf2, 0x8b, 0x1a, 0x3f, 0x55, 0xf3, 0x33, 0xbf, 
0x76, 0x62, 0x95, 0xbe, 0xa5, 0xee, 0x26, 0x3f, 0xff, 0x32, 0xdf, 0xbe, 
0x42, 0x02, 0xc1, 0xbe, 0x90, 0x4a, 0x95, 0x3e, 0xcc, 0x3c, 0x80, 0x3e, 
0x5c, 0x7f, 0x3b, 0xbd, 0xd0, 0x24, 0x8b, 0x3f, 0x32, 0x3c, 0x02, 0xbe, 
0x3b, 0x5e, 0xaf, 0x3e, 0x29, 0x1d, 0xcc, 0x3e, 0x31, 0xb9, 0x04, 0x3f, 
0x29, 0x71, 0xb7, 0xbe, 0xab, 0xe7, 0xc0, 0x3e, 0xda, 0x98, 0xe8, 0x3e, 
0xe0, 0x4c, 0x50, 0xbf, 0x71, 0xfb, 0x13, 0xbe, 0xc9, 0x45, 0xc4, 0xbe, 
0xc4, 0x9f, 0xc9, 0x3d, 0xba, 0xbe, 0x7f, 0x3d, 0xdc, 0x6f, 0xaf, 0xbe, 
0x18, 0x6e, 0xae, 0x3e, 0xfa, 0x21, 0x37, 0xbf, 0xa2, 0x27, 0x20, 0x3f, 
0xb8, 0x97, 0x3c, 0x3c, 0x47, 0xdd, 0x4e, 0x3e, 0xd4, 0x70, 0xc5, 0x3e, 
0x2d, 0x77, 0xe5, 0x3d, 0x71, 0x85, 0x32, 0xbf, 0x06, 0x28, 0x3e, 0x3e, 
0xec, 0x3a, 0x7b, 0x3e, 0x67, 0x58, 0x80, 0xbd, 0xc0, 0xbe, 0x17, 0xbf, 
0xc5, 0xc0, 0xad, 0x3d, 0x08, 0x88, 0x16, 0xbf, 0x80, 0x33, 0xa3, 0xbe, 
0x67, 0xca, 0x91, 0x3e, 0xba, 0x31, 0xa8, 0xbe, 0xe1, 0xb9, 0xd3, 0x3e, 
0x43, 0xcd, 0x18, 0x3e, 0x2f, 0x93, 0xb1, 0x3d, 0x1a, 0x30, 0x07, 0x3f, 
0xf8, 0x34, 0xca, 0x3e, 0x6f, 0x19, 0xa2, 0x3e, 0xfd, 0x50, 0xbb, 0xbe, 
0x0e, 0x63, 0xf9, 0xbe, 0xa3, 0xcd, 0x69, 0xbd, 0x9f, 0x9f, 0x2e, 0x3f, 
0xb8, 0xd9, 0x89, 0xbc, 0x2d, 0x55, 0xaf, 0xbe, 0xd3, 0xc7, 0xaa, 0xbe, 
0x1e, 0x6c, 0xb6, 0xbe, 0xb8, 0x28, 0x37, 0xbf, 0xb7, 0x8c, 0xce, 0xbe, 
0x2b, 0x72, 0xc6, 0xbf, 0x2f, 0x13, 0x24, 0xbf, 0xb1, 0x8c, 0x48, 0xbe, 
0x59, 0xd4, 0x32, 0xbc, 0x06, 0x42, 0xb3, 0xbe, 0x7b, 0x4b, 0x2d, 0xbf, 
0x5f, 0xbd, 0xcb, 0x3d, 0xc7, 0x36, 0x68, 0x3d, 0x5b, 0xbe, 0xf3, 0x3e, 
0x86, 0x6b, 0x8c, 0xbe, 0x3f, 0xe4, 0x84, 0x3e, 0x4c, 0x13, 0x85, 0x3d, 
0x88, 0xf3, 0x33, 0x3f, 0x74, 0x71, 0x95, 0xbe, 0x36, 0x2e, 0x6c, 0xbe, 
0x35, 0xc7, 0xb2, 0x3e, 0x8b, 0x19, 0xc5, 0xbd, 0xa7, 0x4d, 0xc7, 0x3e, 
0xda, 0x0a, 0x48, 0xbd, 0x59, 0x9e, 0x39, 0xbe, 0xce, 0xfc, 0x7d, 0x3e, 
0xbe, 0x36, 0x0b, 0xbe, 0x0c, 0x0a, 0x36, 0x3e, 0x5b, 0x1d, 0xb5, 0xbb, 
0x05, 0x54, 0x25, 0xbe, 0xc7, 0x6f, 0xa0, 0x3e, 0xf5, 0xf0, 0x53, 0x3d, 
0xd4, 0xf7, 0xc3, 0x3e, 0x00, 0x2c, 0xf5, 0x3e, 0xf2, 0x06, 0x9b, 0xbe, 
0x16, 0x30, 0x5e, 0xbe, 0x01, 0x04, 0x56, 0xbe, 0x67, 0xc8, 0xf1, 0xbe, 
0x5e, 0x19, 0xa8, 0xbe, 0x7a, 0x00, 0xb6, 0x3c, 0xab, 0x2c, 0x7a, 0x3e, 
0x04, 0x5a, 0x75, 0x3f, 0x2a, 0x14, 0x4f, 0xbf, 0x46, 0xed, 0x82, 0xbf, 
0xc8, 0xb7, 0xb4, 0xbd, 0x85, 0x0a, 0xaf, 0xbe, 0x15, 0xcd, 0x06, 0x3f, 
0x93, 0xa7, 0xb8, 0xbe, 0xbd, 0x80, 0xcd, 0xbe, 0xf2, 0xfd, 0x89, 0x3d, 
0x4d, 0x00, 0x93, 0x3e, 0x7e, 0x01, 0xb8, 0xbe, 0xd9, 0x81, 0x63, 0xbe, 
0xb4, 0x62, 0x1e, 0xbd, 0xff, 0x7a, 0xef, 0x3d, 0x66, 0xee, 0x40, 0xbd, 
0x75, 0x3f, 0x63, 0x3f, 0x16, 0xc3, 0xb6, 0x3e, 0xea, 0x3e, 0x3a, 0xbf, 
0xcb, 0xb6, 0x0c, 0xbf, 0x34, 0x96, 0x47, 0xbd, 0x3e, 0x13, 0x49, 0x3e, 
0x79, 0x84, 0x8f, 0x3e, 0x3b, 0xd3, 0x12, 0x3f, 0x4f, 0xb1, 0x44, 0xbe, 
0x06, 0xca, 0xbc, 0x3e, 0xf1, 0x5c, 0x00, 0x3f, 0x00, 0x8a, 0x5e, 0x3d, 
0xba, 0xaf, 0x06, 0x3f, 0xf1, 0x0f, 0xbd, 0xbf, 0x54, 0x55, 0x93, 0xbe, 
0xc0, 0x64, 0xb6, 0xbe, 0x71, 0x67, 0xa7, 0x3b, 0x4d, 0x55, 0xb6, 0x3e, 
0xc6, 0x66, 0x7f, 0xbb, 0x48, 0xde, 0x12, 0x3d, 0xd2, 0xc1, 0x45, 0xbd, 
0xb2, 0xf6, 0xe4, 0x3e, 0xe7, 0xb7, 0x84, 0xbe, 0x92, 0xbc, 0x88, 0xbf, 
0x10, 0xfb, 0x85, 0x3f, 0x30, 0xc1, 0xc8, 0xbb, 0x3b, 0x5b, 0x9e, 0xbe, 
0x4f, 0x85, 0x41, 0x3f, 0xf8, 0xcb, 0xf3, 0x3e, 0x0c, 0x39, 0x6e, 0xbe, 
0xb8, 0xe5, 0x44, 0x3f, 0xf9, 0x73, 0xc6, 0x3e, 0x37, 0xb1, 0xc6, 0xbe, 
0x05, 0xbe, 0x33, 0xbf, 0x0f, 0x24, 0x18, 0x3f, 0xce, 0x0d, 0x94, 0xbe, 
0xb8, 0x98, 0x31, 0x3f, 0xce, 0xf4, 0x33, 0xbf, 0x3f, 0xf6, 0x47, 0xbf, 
0x05, 0xc4, 0xf1, 0xbe, 0xd8, 0x0d, 0xe8, 0x3d, 0x50, 0xe2, 0x16, 0x3e, 
0x4d, 0xc0, 0x15, 0x3e, 0x2b, 0x0a, 0x6e, 0xbf, 0xb2, 0xac, 0x07, 0x3f, 
0x1e, 0x8a, 0x72, 0xbe, 0x71, 0x9b, 0x32, 0xbe, 0x9c, 0x61, 0x47, 0x3d, 
0x90, 0x19, 0x83, 0x3e, 0xc1, 0xb1, 0xc5, 0x3e, 0xa8, 0xae, 0xdf, 0xbe, 
0x0c, 0x64, 0x3c, 0x3f, 0xe5, 0x79, 0x11, 0xbf, 0x7b, 0xe3, 0x1c, 0x3f, 
0xb5, 0x6b, 0xbc, 0x3e, 0x3a, 0x63, 0xc6, 0x3e, 0xf2, 0x84, 0xcd, 0xbd, 
0xc9, 0x4a, 0xfa, 0xbe, 0x3a, 0xf4, 0x88, 0x3c, 0x09, 0x3d, 0x2f, 0x3f, 
0xeb, 0xfa, 0x1e, 0xbe, 0xbe, 0x93, 0xe0, 0x3e, 0x29, 0x4d, 0x35, 0x3e, 
0x82, 0xff, 0x74, 0xbe, 0x4f, 0x51, 0xcf, 0x3e, 0x3c, 0x1e, 0xff, 0x3e, 
0x65, 0x83, 0x0f, 0xbe, 0x23, 0xca, 0xf1, 0xbc, 0x18, 0x97, 0xe8, 0xbd, 
0x9f, 0x7a, 0x61, 0xbe, 0x1e, 0x11, 0x92, 0x3d, 0x73, 0x3f, 0x1a, 0x3f, 
